{
  "ki,": 0,
  "bir": 1,
  "bu": 2,
  "və": 3,
  "o": 4,
  "nə": 5,
  "də": 6,
  "ey": 7,
  "an": 8,
  "ilə": 9,
  "hər": 10,
  "Ey": 11,
  ",": 12,
  "Bu": 13,
  "kimi": 14,
  "O": 15,
  "-": 16,
  "i": 17,
  "a": 18,
  "im": 19,
  "Bir": 20,
  "ə": 21,
  "ar": 22,
  "da": 23,
  "in": 24,
  "Hər": 25,
  ".": 26,
  "mən": 27,
  "sən": 28,
  "ən": 29,
  "al": 30,
  "\"": 31,
  "Mən": 32,
  "lər": 33,
  "tək": 34,
  "Nə": 35,
  "can": 36,
  "ini": 37,
  "ə,": 38,
  "gün": 39,
  "ər": 40,
  "ay": 41,
  "dən": 42,
  "gül": 43,
  "a,": 44,
  "mənə": 45,
  "üçün": 46,
  "ın": 47,
  "əl": 48,
  "am": 49,
  "r": 50,
  "il": 51,
  "i,": 52,
  "ir": 53,
  "lə": 54,
  "lar": 55,
  "əm": 56,
  "inə": 57,
  "at": 58,
  "d": 59,
  "t": 60,
  "l": 61,
  "i-": 62,
  "inin": 63,
  "ət": 64,
  "ib": 65,
  "k": 66,
  "çox": 67,
  "Ki,": 68,
  "ı": 69,
  "var": 70,
  "göz": 71,
  "dan": 72,
  "qədər": 73,
  "sənin": 74,
  "sənə": 75,
  "m": 76,
  "im,": 77,
  "məni": 78,
  "ü": 79,
  "n": 80,
  "!": 81,
  "onun": 82,
  "ver": 83,
  "Sən": 84,
  "gəl": 85,
  "gör": 86,
  "Çünki": 87,
  "s": 88,
  "heç": 89,
  "qan": 90,
  "ar,": 91,
  "ım": 92,
  "yar": 93,
  "un": 94,
  "kəs": 95,
  "Əgər": 96,
  "an,": 97,
  "aq": 98,
  "az": 99,
  "dır": 100,
  "bil": 101,
  "iş": 102,
  "gözəl": 103,
  "həm": 104,
  "indən": 105,
  "xoş": 106,
  "b": 107,
  "q": 108,
  "u": 109,
  "çək": 110,
  "mənim": 111,
  "ad": 112,
  "oldu,": 113,
  "?": 114,
  "ç": 115,
  "ona": 116,
  "–": 117,
  "S": 118,
  "min": 119,
  "ına": 120,
  "öz": 121,
  "ək": 122,
  "dir": 123,
  "ş": 124,
  "var,": 125,
  "anı": 126,
  "dil": 127,
  "ar.": 128,
  "ı,": 129,
  "əm,": 130,
  "belə": 131,
  "onu": 132,
  "ır": 133,
  "ah": 134,
  "ını": 135,
  "B": 136,
  "də,": 137,
  "as": 138,
  "söz": 139,
  "et,": 140,
  "D": 141,
  "olan": 142,
  "Füzuli,": 143,
  "ağ": 144,
  "dı": 145,
  "qəm": 146,
  "da,": 147,
  "lərin": 148,
  "necə": 149,
  "ində": 150,
  "kim": 151,
  "əgər": 152,
  "baş": 153,
  "am,": 154,
  "h": 155,
  "c": 156,
  "la": 157,
  "dir,": 158,
  "şah": 159,
  "üm": 160,
  "ya": 161,
  "yan": 162,
  "əsi": 163,
  "di": 164,
  "qal": 165,
  "ləri": 166,
  "üz": 167,
  "əs": 168,
  "ik": 169,
  "ıb": 170,
  "ab": 171,
  "anın": 172,
  "eşq": 173,
  "sən,": 174,
  "dı,": 175,
  "an.": 176,
  "ər,": 177,
  "dur": 178,
  "əyə": 179,
  "id": 180,
  "li": 181,
  "ur": 182,
  "v": 183,
  "ının": 184,
  "f": 185,
  "x": 186,
  "N": 187,
  "zaman": 188,
  "in,": 189,
  "könül": 190,
  "ün": 191,
  "qoy": 192,
  "sal": 193,
  "etdi,": 194,
  "etdi.": 195,
  "y": 196,
  "i.": 197,
  "su": 198,
  "g": 199,
  "iki": 200,
  "yol": 201,
  "Y": 202,
  "imi": 203,
  "olar.": 204,
  "siz": 205,
  "z": 206,
  "ından": 207,
  "is": 208,
  "ana": 209,
  "tap": 210,
  "dır,": 211,
  "idir,": 212,
  "əni": 213,
  "a.": 214,
  "düş": 215,
  "içində": 216,
  "ki": 217,
  "p": 218,
  "yüz": 219,
  "ında": 220,
  "ə.": 221,
  "əd": 222,
  "Gör": 223,
  "isə": 224,
  "T": 225,
  "ər.": 226,
  "K": 227,
  "məz": 228,
  "um": 229,
  "idi,": 230,
  "oldu": 231,
  "ür": 232,
  "ənin": 233,
  "Kim": 234,
  "etmək": 235,
  "tut": 236,
  "ası": 237,
  "aç": 238,
  "iy": 239,
  "olar": 240,
  "hal": 241,
  "ən,": 242,
  "Eşq": 243,
  "et": 244,
  "ım,": 245,
  "aşiq": 246,
  "bütün": 247,
  "ları": 248,
  "tər": 249,
  "ların": 250,
  "mək": 251,
  "deyil,": 252,
  "aya": 253,
  "lı": 254,
  "lıq": 255,
  "ol": 256,
  "səni": 257,
  "ul": 258,
  "dərd": 259,
  "ib,": 260,
  "ın,": 261,
  "mey": 262,
  "şərab": 263,
  "A": 264,
  "Can": 265,
  "dünyada": 266,
  "iç": 267,
  "lar,": 268,
  "mış": 269,
  "oldu.": 270,
  "olsun": 271,
  "sa": 272,
  "san": 273,
  "sə": 274,
  "çat": 275,
  "H": 276,
  "bax": 277,
  "ir,": 278,
  "yox": 279,
  "ı.": 280,
  "Q": 281,
  "ma": 282,
  "yaz": 283,
  "sin": 284,
  "qara": 285,
  "aş": 286,
  "olub": 287,
  "sərv": 288,
  "ələr": 289,
  "elə": 290,
  "iz": 291,
  "qızıl": 292,
  "yaş": 293,
  "it": 294,
  "nur": 295,
  "olub,": 296,
  "ov": 297,
  "adı": 298,
  "var.": 299,
  "yer": 300,
  "M": 301,
  "edər": 302,
  "Şah": 303,
  "ədən": 304,
  "ini,": 305,
  "mə": 306,
  "çıx": 307,
  "Allah": 308,
  "X": 309,
  "daş": 310,
  "dır.": 311,
  "qul": 312,
  "Ş": 313,
  "Gül": 314,
  "Sənin": 315,
  "xan": 316,
  "çünki": 317,
  "Onun": 318,
  "ıb,": 319,
  "əy": 320,
  "Dedi:": 321,
  "könül,": 322,
  "əz": 323,
  "du": 324,
  "imin": 325,
  "keç": 326,
  "ımı": 327,
  "ır,": 328,
  "şirin": 329,
  "bağ": 330,
  "başqa": 331,
  "ed": 332,
  "ma,": 333,
  "maq": 334,
  "deyil": 335,
  "di,": 336,
  "dərman": 337,
  "Bil": 338,
  "Göz": 339,
  "dən,": 340,
  "dər": 341,
  "edər.": 342,
  "qurban": 343,
  "sev": 344,
  "unu": 345,
  "dağ": 346,
  "əti": 347,
  "maz": 348,
  "sə,": 349,
  "od": 350,
  "sa,": 351,
  ":": 352,
  "Bütün": 353,
  "dar": 354,
  "san,": 355,
  "səhər": 356,
  "ıq": 357,
  "əb": 358,
  "Günəş": 359,
  "daha": 360,
  "dür": 361,
  "sın": 362,
  "bəy": 363,
  "həyat": 364,
  "lik": 365,
  "olsa": 366,
  "saç": 367,
  "Gəl": 368,
  "din": 369,
  "dünya": 370,
  "el": 371,
  "man": 372,
  "vur": 373,
  "ac": 374,
  "dir.": 375,
  "if": 376,
  "sultan": 377,
  "sən.": 378,
  "uz": 379,
  "vaxt": 380,
  "ıdır,": 381,
  "şad": 382,
  "ənd": 383,
  "Elə": 384,
  "Z": 385,
  "arı": 386,
  "dı.": 387,
  "insan": 388,
  "inə,": 389,
  "olar,": 390,
  "olsun,": 391,
  "ü-": 392,
  "günəş": 393,
  "edib,": 394,
  "qur": 395,
  "tərk": 396,
  "una": 397,
  "ına,": 398,
  "əh": 399,
  "Heç": 400,
  "dur,": 401,
  "gah": 402,
  "kimi,": 403,
  "xəbər": 404,
  "anda": 405,
  "edər,": 406,
  "gecə": 407,
  "Ə": 408,
  "dost": 409,
  "ox": 410,
  "səndən": 411,
  "Ay": 412,
  "Sənə": 413,
  "adan": 414,
  "de": 415,
  "edən": 416,
  "gəz": 417,
  "lər,": 418,
  "nəzər": 419,
  "sər": 420,
  "əli": 421,
  "“": 422,
  "ara": 423,
  "dü": 424,
  "lərə": 425,
  "miş": 426,
  "niyə": 427,
  "ını,": 428,
  "ədə": 429,
  "R": 430,
  "ağlayırsan.": 431,
  "ilər": 432,
  "lara": 433,
  "mə,": 434,
  "yenə": 435,
  "ıl": 436,
  "daim": 437,
  "fələk": 438,
  "ged": 439,
  "gizli": 440,
  "lan": 441,
  "on": 442,
  "ğ": 443,
  "İ": 444,
  "lütf": 445,
  "ondan": 446,
  "yoxdur": 447,
  "üzünü": 448,
  "alar": 449,
  "cənnət": 450,
  "göstər": 451,
  "mən,": 452,
  "mən.": 453,
  "yoxdur,": 454,
  "əhli": 455,
  "C": 456,
  "dım,": 457,
  "etdi": 458,
  "imə": 459,
  "iyə": 460,
  "qıl": 461,
  "G": 462,
  "af": 463,
  "muş": 464,
  "məndən": 465,
  "olur": 466,
  "qorx": 467,
  "zər": 468,
  "ül": 469,
  "dım": 470,
  "qar": 471,
  "quş": 472,
  "ruh": 473,
  "ub": 474,
  "Ç": 475,
  "öl": 476,
  "Əl": 477,
  ";": 478,
  "di.": 479,
  "indi": 480,
  "ış": 481,
  "Necə": 482,
  "dan,": 483,
  "göy": 484,
  "Çox": 485,
  "ü,": 486,
  "adam": 487,
  "danış": 488,
  "dövr": 489,
  "eşqin": 490,
  "olmaz,": 491,
  "sız": 492,
  "əf": 493,
  "əsini": 494,
  "Məni": 495,
  "Mənim": 496,
  "Mənə": 497,
  "Nəsimi": 498,
  "cam": 499,
  "du,": 500,
  "ev": 501,
  "idi": 502,
  "iq": 503,
  "iyyət": 504,
  "mü": 505,
  "mənəm,": 506,
  "olmuş": 507,
  "təzə": 508,
  "ud": 509,
  "ünə": 510,
  "şey": 511,
  "”": 512,
  "Ta": 513,
  "Xaqani,": 514,
  "Yar": 515,
  "ağıl": 516,
  "dön": 517,
  "neçə": 518,
  "ol,": 519,
  "ünü": 520,
  "üzün": 521,
  "əq": 522,
  "F": 523,
  "Ona": 524,
  "av": 525,
  "böyük": 526,
  "bəl": 527,
  "idir": 528,
  "idir.": 529,
  "olsa,": 530,
  "seyr": 531,
  "zülm": 532,
  "özünü": 533,
  "üçün,": 534,
  "ətin": 535,
  "dəm": 536,
  "ləl": 537,
  "pərişan": 538,
  "yerə": 539,
  "ünün": 540,
  "üzünün": 541,
  "əndə": 542,
  "əng": 543,
  "Həm": 544,
  "am.": 545,
  "asını": 546,
  "bilməz": 547,
  "ta": 548,
  "ündən": 549,
  "ə-": 550,
  "alı": 551,
  "deyil.": 552,
  "etmə,": 553,
  "könlüm": 554,
  "lar.": 555,
  "tik": 556,
  "yad": 557,
  "yaxşı": 558,
  "üb": 559,
  "ır.": 560,
  "şam": 561,
  "əsinə": 562,
  "Səni": 563,
  "Ya": 564,
  "bizə": 565,
  "bədən": 566,
  "dedi:": 567,
  "edib": 568,
  "mət": 569,
  "saf": 570,
  "əc": 571,
  "ədir,": 572,
  "edir": 573,
  "gövhər": 574,
  "li,": 575,
  "maz,": 576,
  "rəng": 577,
  "u,": 578,
  "ənbər": 579,
  "əş": 580,
  "ağı": 581,
  "biri": 582,
  "boş": 583,
  "heyran": 584,
  "larını": 585,
  "or": 586,
  "sübh": 587,
  "uc": 588,
  "Öz": 589,
  "ürək": 590,
  "ətə": 591,
  "Al": 592,
  "Haqq": 593,
  "bal": 594,
  "etdim,": 595,
  "gir": 596,
  "ist": 597,
  "məst": 598,
  "qaç": 599,
  "qaş": 600,
  "qəlb": 601,
  "səm": 602,
  "ük": 603,
  "ədir": 604,
  "'''Vidadi'''": 605,
  "O,": 606,
  "bülbül": 607,
  "dövlət": 608,
  "düşmən": 609,
  "ik,": 610,
  "ilə,": 611,
  "ir.": 612,
  "mal": 613,
  "o,": 614,
  "qat": 615,
  "sonra": 616,
  "yerdə": 617,
  "'''Vaqif'''": 618,
  "Belə": 619,
  "amma": 620,
  "ax": 621,
  "dal": 622,
  "dim": 623,
  "dünyanın": 624,
  "hur": 625,
  "idi.": 626,
  "inc": 627,
  "isi": 628,
  "layiq": 629,
  "mənə.": 630,
  "qədəh": 631,
  "sür": 632,
  "təb": 633,
  "üzünə": 634,
  "ıma": 635,
  "*": 636,
  "ehsan": 637,
  "günü": 638,
  "lən": 639,
  "tar": 640,
  "uş": 641,
  "yat": 642,
  "yay": 643,
  "yaşı": 644,
  "Könül": 645,
  "L": 646,
  "Onu": 647,
  "Söz": 648,
  "V": 649,
  "bel": 650,
  "bər": 651,
  "kar": 652,
  "lərini": 653,
  "məs": 654,
  "olmaz": 655,
  "pak": 656,
  "say": 657,
  "viran": 658,
  "vüsal": 659,
  "xal": 660,
  "ımın": 661,
  "şəkər": 662,
  "əm.": 663,
  "Dünya": 664,
  "P": 665,
  "Qəm": 666,
  "ada": 667,
  "aləm": 668,
  "bəd": 669,
  "gül.": 670,
  "hicran": 671,
  "istər": 672,
  "məl": 673,
  "unun": 674,
  "xəyal": 675,
  "ımız": 676,
  "Səhər": 677,
  "aşkar": 678,
  "başına": 679,
  "bəxş": 680,
  "dərdə": 681,
  "e": 682,
  "fər": 683,
  "gəldi,": 684,
  "gərək": 685,
  "gətir": 686,
  "mi": 687,
  "mələk": 688,
  "olm": 689,
  "onda": 690,
  "van": 691,
  "yox,": 692,
  "üş": 693,
  "ərd": 694,
  "Ağ": 695,
  "Nəsimi,": 696,
  "Qoy": 697,
  "ak": 698,
  "ası,": 699,
  "biz": 700,
  "can,": 701,
  "dey": 702,
  "həmişə": 703,
  "lı,": 704,
  "meyl": 705,
  "olsun.": 706,
  "pər": 707,
  "xəstə": 708,
  "zövq": 709,
  "üzü": 710,
  "ək,": 711,
  "Gözəl": 712,
  "cə": 713,
  "dü,": 714,
  "etmiş": 715,
  "tan": 716,
  "tərif": 717,
  "ımdan": 718,
  "2": 719,
  "ayrı": 720,
  "ayət": 721,
  "ağa": 722,
  "ağac": 723,
  "bax,": 724,
  "bəla": 725,
  "bəs": 726,
  "elm": 727,
  "gözüm": 728,
  "lə,": 729,
  "məz,": 730,
  "naz": 731,
  "pis": 732,
  "tök": 733,
  "yoxdur.": 734,
  "Üzünün": 735,
  "ıdır": 736,
  "ıdır.": 737,
  "Səndən": 738,
  "Yer": 739,
  "a-": 740,
  "cür": 741,
  "dünyanı": 742,
  "etm": 743,
  "gör,": 744,
  "görə": 745,
  "imdə": 746,
  "müş": 747,
  "məyə": 748,
  "rə": 749,
  "tük": 750,
  "ün,": 751,
  "İndi": 752,
  "ət,": 753,
  "əv": 754,
  "(": 755,
  "Baş": 756,
  "alt": 757,
  "bilməz.": 758,
  "diş": 759,
  "gey": 760,
  "görən": 761,
  "hökm": 762,
  "indən,": 763,
  "mağa": 764,
  "mış,": 765,
  "mənim.": 766,
  "qəd": 767,
  "sahib": 768,
  "səcdə": 769,
  "torpaq": 770,
  "zar": 771,
  "zülfün": 772,
  "üstündə": 773,
  "şər": 774,
  "ən.": 775,
  "əsi,": 776,
  "Mey": 777,
  "bəyan": 778,
  "cana": 779,
  "dür,": 780,
  "gec": 781,
  "həd": 782,
  "im.": 783,
  "imdən": 784,
  "incə": 785,
  "işi": 786,
  "məclis": 787,
  "olmaz.": 788,
  "sirrini": 789,
  "sərxoş": 790,
  "canımı": 791,
  "dəy": 792,
  "ib.": 793,
  "inci": 794,
  "la,": 795,
  "luq": 796,
  "məy": 797,
  "qərq": 798,
  "sirr": 799,
  "təl": 800,
  "yax": 801,
  "zülfünün": 802,
  "əbədi": 803,
  "əzab": 804,
  "adır": 805,
  "adət": 806,
  "aləmdə": 807,
  "art": 808,
  "arın": 809,
  "ay,": 810,
  "bat": 811,
  "dim,": 812,
  "dodaq": 813,
  "doğru": 814,
  "imiz": 815,
  "ind": 816,
  "kədər": 817,
  "lər.": 818,
  "mər": 819,
  "ola": 820,
  "tez": 821,
  "uzaq": 822,
  "ından,": 823,
  "Allaha": 824,
  "Ar": 825,
  "andan": 826,
  "andır,": 827,
  "anı,": 828,
  "anı.": 829,
  "apar": 830,
  "açıl": 831,
  "bənzər": 832,
  "fəryad": 833,
  "gözlər": 834,
  "nam": 835,
  "parlaq": 836,
  "qır": 837,
  "qəbul": 838,
  "tək,": 839,
  "təm": 840,
  "təs": 841,
  "us": 842,
  "yarın": 843,
  "zəif": 844,
  "öp": 845,
  "3": 846,
  "Dərd": 847,
  "acı": 848,
  "asan": 849,
  "azad": 850,
  "et.": 851,
  "etsə,": 852,
  "günah": 853,
  "gəl,": 854,
  "həmdəm": 855,
  "iman": 856,
  "işə": 857,
  "rəngli": 858,
  "sir": 859,
  "səs": 860,
  "un,": 861,
  "ut": 862,
  "yandır": 863,
  "ye": 864,
  "yetiş": 865,
  "əmi": 866,
  "Biri": 867,
  "Fələk": 868,
  "Sübh": 869,
  "Yan": 870,
  "Yol": 871,
  "adır,": 872,
  "alan": 873,
  "aq,": 874,
  "artıq": 875,
  "asına": 876,
  "atəş": 877,
  "boy": 878,
  "canan": 879,
  "görüb": 880,
  "gümüş": 881,
  "kən": 882,
  "lu": 883,
  "lərdən": 884,
  "məskən": 885,
  "nədir": 886,
  "qap": 887,
  "sor": 888,
  "səbr": 889,
  "səbəb": 890,
  "tal": 891,
  "tən": 892,
  "unda": 893,
  "uq": 894,
  "uy": 895,
  "üstünə": 896,
  "üzlü": 897,
  "əhl": 898,
  "ənə": 899,
  "Dünyada": 900,
  "Gah": 901,
  "Lakin": 902,
  "anda,": 903,
  "bar": 904,
  "cəm": 905,
  "eh": 906,
  "hesab": 907,
  "həsrət": 908,
  "istəy": 909,
  "iyəm,": 910,
  "lam": 911,
  "lay": 912,
  "məh": 913,
  "nədir?": 914,
  "olduğunu": 915,
  "qay": 916,
  "söhbət": 917,
  "xar": 918,
  "çıxar": 919,
  "ım.": 920,
  "şir": 921,
  "ədir.": 922,
  "əlindən": 923,
  "4": 924,
  "De": 925,
  "Dil": 926,
  "ayaq": 927,
  "bilir": 928,
  "bət": 929,
  "ciyər": 930,
  "day": 931,
  "deyir": 932,
  "düz": 933,
  "dəfə": 934,
  "etmə": 935,
  "könlümü": 936,
  "müşk": 937,
  "məd": 938,
  "nəs": 939,
  "qılınc": 940,
  "tə": 941,
  "çal": 942,
  "əsindən": 943,
  "5": 944,
  "Düş": 945,
  "Kəb": 946,
  "Qur": 947,
  "alın": 948,
  "ancaq": 949,
  "bas": 950,
  "canım": 951,
  "dəniz": 952,
  "ic": 953,
  "inkar": 954,
  "kül": 955,
  "olun": 956,
  "qanlı": 957,
  "san.": 958,
  "sil": 959,
  "suyu": 960,
  "sın,": 961,
  "səf": 962,
  "tac": 963,
  "utan": 964,
  "çarə": 965,
  "özü": 966,
  "ına.": 967,
  "ız": 968,
  "ərəm,": 969,
  "əsir": 970,
  "ətlə": 971,
  "Yüz": 972,
  "anə": 973,
  "asının": 974,
  "axtar": 975,
  "bax!": 976,
  "budur": 977,
  "dam": 978,
  "dolu": 979,
  "dəl": 980,
  "in.": 981,
  "iyi": 982,
  "kəl": 983,
  "kəm": 984,
  "may": 985,
  "mümkün": 986,
  "mənə,": 987,
  "nar": 988,
  "soruş": 989,
  "yet": 990,
  "ığ": 991,
  "əsində": 992,
  "6": 993,
  "Eşqin": 994,
  "Ol": 995,
  "Yenə": 996,
  "ala": 997,
  "büt": 998,
  "canı": 999,
  "canını": 1000,
  "cəf": 1001,
  "dan.": 1002,
  "dilbər,": 1003,
  "dünyaya": 1004,
  "dən.": 1005,
  "fikir": 1006,
  "kamil": 1007,
  "liyi": 1008,
  "ləş": 1009,
  "nal": 1010,
  "oy": 1011,
  "sağ": 1012,
  "sözü": 1013,
  "yolunda": 1014,
  "üs": 1015,
  "üstün": 1016,
  "ımda": 1017,
  "ında,": 1018,
  "əməl": 1019,
  "ənlər": 1020,
  "əri": 1021,
  "ətli": 1022,
  "əyi": 1023,
  "7": 1024,
  "Bağ": 1025,
  "Min": 1026,
  "Xoş": 1027,
  "asından": 1028,
  "axır": 1029,
  "bil,": 1030,
  "bundan": 1031,
  "bunu": 1032,
  "dayan": 1033,
  "döndər": 1034,
  "etməyə": 1035,
  "ham": 1036,
  "hörmət": 1037,
  "inlə": 1038,
  "kam": 1039,
  "kimsə": 1040,
  "liy": 1041,
  "lərinin": 1042,
  "nədir,": 1043,
  "ot": 1044,
  "oğlu": 1045,
  "son": 1046,
  "uca": 1047,
  "undan": 1048,
  "uzun": 1049,
  "yoldaş": 1050,
  "zülf": 1051,
  "İsa": 1052,
  "əhlinin": 1053,
  "əldən": 1054,
  "ətdə": 1055,
  "ətdən": 1056,
  "Vaqif": 1057,
  "Xətai,": 1058,
  "amı": 1059,
  "dad": 1060,
  "dik": 1061,
  "gəlib": 1062,
  "heyvan": 1063,
  "kin": 1064,
  "ney": 1065,
  "nişan": 1066,
  "olma,": 1067,
  "par": 1068,
  "sifət": 1069,
  "süz": 1070,
  "top": 1071,
  "xət": 1072,
  "yana": 1073,
  "çi": 1074,
  "çətin": 1075,
  "ündə": 1076,
  "İki": 1077,
  "ın.": 1078,
  "ıs": 1079,
  "əsən": 1080,
  ".\"": 1081,
  "Dost": 1082,
  "Gün": 1083,
  "Ox": 1084,
  "U": 1085,
  "andır.": 1086,
  "bad": 1087,
  "bur": 1088,
  "bə": 1089,
  "düşdü,": 1090,
  "dəki": 1091,
  "eşit": 1092,
  "görün": 1093,
  "hey": 1094,
  "hikmət": 1095,
  "irəm": 1096,
  "madı": 1097,
  "oldum,": 1098,
  "olub.": 1099,
  "olur,": 1100,
  "otur": 1101,
  "qönç": 1102,
  "sənə,": 1103,
  "tutub": 1104,
  "yar,": 1105,
  "zaman,": 1106,
  "ıb.": 1107,
  "şək": 1108,
  "?!": 1109,
  "Ah": 1110,
  "Aşiq": 1111,
  "Biz": 1112,
  "Xaqani": 1113,
  "aya,": 1114,
  "ayı": 1115,
  "ayır": 1116,
  "bilməz,": 1117,
  "bit": 1118,
  "deyər": 1119,
  "divan": 1120,
  "doğ": 1121,
  "en": 1122,
  "eş": 1123,
  "gül,": 1124,
  "haqq": 1125,
  "irəm,": 1126,
  "kəsə": 1127,
  "lal": 1128,
  "lardan": 1129,
  "mi,": 1130,
  "məqsəd": 1131,
  "qər": 1132,
  "rət": 1133,
  "söy": 1134,
  "torpağa": 1135,
  "tələb": 1136,
  "ulduz": 1137,
  "ver,": 1138,
  "verən": 1139,
  "xətt": 1140,
  "zat": 1141,
  "Ü": 1142,
  "Üzün": 1143,
  "çar": 1144,
  "ömür": 1145,
  "üstə": 1146,
  "şərh": 1147,
  "əhlinə": 1148,
  "əldə": 1149,
  "ərə": 1150,
  "Gəl,": 1151,
  "adını": 1152,
  "bəxt": 1153,
  "cah": 1154,
  "dörd": 1155,
  "etd": 1156,
  "getm": 1157,
  "lü": 1158,
  "mərd": 1159,
  "nemət": 1160,
  "nərgiz": 1161,
  "odur": 1162,
  "olmuşam.": 1163,
  "pay": 1164,
  "qovuş": 1165,
  "qəs": 1166,
  "surət": 1167,
  "tərəf": 1168,
  "vət": 1169,
  "ziy": 1170,
  "Ö": 1171,
  "üst": 1172,
  "üzündə": 1173,
  "üzündən": 1174,
  "İn": 1175,
  "əndən": 1176,
  "əvvəl": 1177,
  "\".": 1178,
  ")": 1179,
  "Ax": 1180,
  "Lütf": 1181,
  "Məgər": 1182,
  "Ondan": 1183,
  "Rəbb,": 1184,
  "Saqi,": 1185,
  "Süleyman": 1186,
  "Yusif": 1187,
  "acaq": 1188,
  "adır.": 1189,
  "badə": 1190,
  "bul": 1191,
  "dur.": 1192,
  "dəf": 1193,
  "edir,": 1194,
  "gözümün": 1195,
  "güc": 1196,
  "gər": 1197,
  "idən": 1198,
  "kərəm": 1199,
  "larına": 1200,
  "lərinə": 1201,
  "ləy": 1202,
  "qəlbi": 1203,
  "sanki": 1204,
  "sus": 1205,
  "səfa": 1206,
  "tel": 1207,
  "uç": 1208,
  "verdi": 1209,
  "xəst": 1210,
  "yara": 1211,
  "üy": 1212,
  "şah,": 1213,
  "ərz": 1214,
  "ətir": 1215,
  "Allahın": 1216,
  "Dey": 1217,
  "Könlüm": 1218,
  "Qar": 1219,
  "aldı,": 1220,
  "aləmə": 1221,
  "aram": 1222,
  "ayrıl": 1223,
  "bənd": 1224,
  "camal": 1225,
  "da.": 1226,
  "dilbər": 1227,
  "düşüb": 1228,
  "dəyiş": 1229,
  "edə": 1230,
  "fərman": 1231,
  "gördü": 1232,
  "gözü": 1233,
  "gələn": 1234,
  "har": 1235,
  "hicr": 1236,
  "könlümün": 1237,
  "liyə": 1238,
  "möhnət": 1239,
  "məhəbbət": 1240,
  "nalə": 1241,
  "qaldır": 1242,
  "sahibi": 1243,
  "sat": 1244,
  "sünbül": 1245,
  "tam": 1246,
  "tənə": 1247,
  "xidmət": 1248,
  "xəzin": 1249,
  "yoxsa": 1250,
  "zülmət": 1251,
  "Üz": 1252,
  "şəh": 1253,
  "ək.": 1254,
  "əks": 1255,
  "əsinin": 1256,
  "əziyyət": 1257,
  "Bax": 1258,
  "Məcnun": 1259,
  "Qal": 1260,
  "aşiqə": 1261,
  "bəri": 1262,
  "cav": 1263,
  "ded": 1264,
  "dövran": 1265,
  "dın,": 1266,
  "dərdi": 1267,
  "getdi,": 1268,
  "götür": 1269,
  "gözün": 1270,
  "gözəl,": 1271,
  "hamısı": 1272,
  "hardasan?": 1273,
  "i!": 1274,
  "kər": 1275,
  "lakin": 1276,
  "ləri,": 1277,
  "lət": 1278,
  "mas": 1279,
  "mir": 1280,
  "məhv": 1281,
  "nad": 1282,
  "qiyamət": 1283,
  "qov": 1284,
  "qurtar": 1285,
  "qərar": 1286,
  "ru": 1287,
  "sar": 1288,
  "sim": 1289,
  "sun": 1290,
  "səp": 1291,
  "səy": 1292,
  "tay": 1293,
  "ur,": 1294,
  "yanında": 1295,
  "zül": 1296,
  "zərrə": 1297,
  "İnsan": 1298,
  "Şir": 1299,
  "əgər,": 1300,
  "əndə,": 1301,
  "əx": 1302,
  "0": 1303,
  "Qan": 1304,
  "al,": 1305,
  "amın": 1306,
  "anım": 1307,
  "axşam": 1308,
  "bahar": 1309,
  "baz": 1310,
  "bizim": 1311,
  "cəfa": 1312,
  "dolan": 1313,
  "düşdü": 1314,
  "dın": 1315,
  "idə": 1316,
  "imiş,": 1317,
  "imlə": 1318,
  "kirpik": 1319,
  "larının": 1320,
  "ləb": 1321,
  "m,": 1322,
  "mək,": 1323,
  "na": 1324,
  "nəd": 1325,
  "olmay": 1326,
  "olmuşam,": 1327,
  "onlar": 1328,
  "oğ": 1329,
  "oğl": 1330,
  "qafil": 1331,
  "qalx": 1332,
  "qamət": 1333,
  "qırmızı": 1334,
  "rəh": 1335,
  "rəhm": 1336,
  "soy": 1337,
  "tamam": 1338,
  "toz": 1339,
  "yaran": 1340,
  "yolunu": 1341,
  "Üzünü": 1342,
  "öldür": 1343,
  "üm,": 1344,
  "ürəy": 1345,
  "şeir": 1346,
  "şəxs": 1347,
  "Ən": 1348,
  "ələ": 1349,
  "əsl": 1350,
  "ətirli": 1351,
  "əyin": 1352,
  "...": 1353,
  "1": 1354,
  "8": 1355,
  "9": 1356,
  "Dedi": 1357,
  "Dünyanın": 1358,
  "Fər": 1359,
  "Haqqın": 1360,
  "Sanki": 1361,
  "Sər": 1362,
  "ban": 1363,
  "bənzər.": 1364,
  "cahan": 1365,
  "edir.": 1366,
  "etməz": 1367,
  "fələyin": 1368,
  "gərək.": 1369,
  "halını": 1370,
  "ilan": 1371,
  "imiş": 1372,
  "las": 1373,
  "lığ": 1374,
  "lərlə": 1375,
  "miş,": 1376,
  "mədən": 1377,
  "məsəl": 1378,
  "pul": 1379,
  "qab": 1380,
  "qanad": 1381,
  "rahat": 1382,
  "ri": 1383,
  "sın.": 1384,
  "unu,": 1385,
  "uşaq": 1386,
  "vəs": 1387,
  "yal": 1388,
  "yaşım": 1389,
  "yel": 1390,
  "yeri": 1391,
  "yıx": 1392,
  "Çin": 1393,
  "Öl": 1394,
  "ül-": 1395,
  "ür,": 1396,
  "ınla": 1397,
  "ığı": 1398,
  "Bəlkə": 1399,
  "Füzuli": 1400,
  "Qəlb": 1401,
  "Xalq": 1402,
  "Zülf": 1403,
  "alıb,": 1404,
  "aləmi": 1405,
  "anlıq": 1406,
  "ağlayırsan!": 1407,
  "bulud": 1408,
  "cism": 1409,
  "dim.": 1410,
  "dodağının": 1411,
  "etdin,": 1412,
  "fəda": 1413,
  "gülzar": 1414,
  "gəlir.": 1415,
  "heyr": 1416,
  "hüsn": 1417,
  "hələ": 1418,
  "ində,": 1419,
  "iylə": 1420,
  "kənar": 1421,
  "mı": 1422,
  "mədh": 1423,
  "məni,": 1424,
  "mənim,": 1425,
  "oyn": 1426,
  "qaldı": 1427,
  "qüdrət": 1428,
  "qış": 1429,
  "rəv": 1430,
  "söyləy": 1431,
  "sənəm,": 1432,
  "tək.": 1433,
  "təsir": 1434,
  "ub,": 1435,
  "umu": 1436,
  "zahid": 1437,
  "çəkib": 1438,
  "üdür,": 1439,
  "üzüm": 1440,
  "şan": 1441,
  "Ər": 1442,
  "Əvvəl": 1443,
  "Əz": 1444,
  "əni,": 1445,
  "əsən,": 1446,
  "—": 1447,
  "?\"": 1448,
  "Elm": 1449,
  "Hansı": 1450,
  "Nəsiminin": 1451,
  "Ver,": 1452,
  "Və": 1453,
  "Xızır": 1454,
  "Yoxsa": 1455,
  "Zülfünün": 1456,
  "adan,": 1457,
  "adın": 1458,
  "alçaq": 1459,
  "and": 1460,
  "anlar": 1461,
  "arzu": 1462,
  "ağını": 1463,
  "ca": 1464,
  "dedi": 1465,
  "du.": 1466,
  "dım.": 1467,
  "etdim.": 1468,
  "etmə!": 1469,
  "fələk,": 1470,
  "gördüm,": 1471,
  "gülən": 1472,
  "gəldi.": 1473,
  "həl": 1474,
  "il,": 1475,
  "kaf": 1476,
  "kitab": 1477,
  "kor": 1478,
  "laş": 1479,
  "mar": 1480,
  "mülk": 1481,
  "qız": 1482,
  "qələm": 1483,
  "qəribə": 1484,
  "sam,": 1485,
  "sel": 1486,
  "səh": 1487,
  "səl": 1488,
  "tarix": 1489,
  "vaxtı": 1490,
  "yam": 1491,
  "yolu": 1492,
  "yux": 1493,
  "zahir": 1494,
  "zaman.": 1495,
  "zərif": 1496,
  "çatdır": 1497,
  "çəkil": 1498,
  "üd": 1499,
  "ğun": 1500,
  "ı-": 1501,
  "ıy": 1502,
  "Şirin": 1503,
  "Əli": 1504,
  "əbəd": 1505,
  "əcək": 1506,
  "ələrin": 1507,
  "ərin": 1508,
  "əsin": 1509,
  "əzəldən": 1510,
  "…": 1511,
  "Bülbül": 1512,
  "Dər": 1513,
  "Xətai": 1514,
  "adı,": 1515,
  "an!": 1516,
  "andır": 1517,
  "araq": 1518,
  "at,": 1519,
  "ayn": 1520,
  "ağz": 1521,
  "bağlı": 1522,
  "başında": 1523,
  "başını": 1524,
  "bin": 1525,
  "bənzər,": 1526,
  "divar": 1527,
  "dərdinə": 1528,
  "etməz,": 1529,
  "eyl": 1530,
  "hiylə": 1531,
  "həqiqət": 1532,
  "həz": 1533,
  "ikən,": 1534,
  "iri": 1535,
  "irsən,": 1536,
  "isə,": 1537,
  "mağ": 1538,
  "məkan": 1539,
  "məmiş": 1540,
  "nəğ": 1541,
  "nəş": 1542,
  "oğul,": 1543,
  "pərd": 1544,
  "qədrini": 1545,
  "qət": 1546,
  "sin.": 1547,
  "səd": 1548,
  "tapılmaz.": 1549,
  "tökül": 1550,
  "va": 1551,
  "vəf": 1552,
  "xalqa": 1553,
  "xeyir": 1554,
  "yaraş": 1555,
  "yetir": 1556,
  "ö": 1557,
  "ölüm": 1558,
  "şahın": 1559,
  "ə!": 1560,
  "əhr": 1561,
  "əmin": 1562,
  "ərdir.": 1563,
  "Bəs": 1564,
  "Gecə-gündüz": 1565,
  "Gözümün": 1566,
  "Kəbə": 1567,
  "Musa": 1568,
  "Onlar": 1569,
  "Sal": 1570,
  "Vaqif,": 1571,
  "adım,": 1572,
  "arım": 1573,
  "bilən": 1574,
  "cövhər": 1575,
  "dağıl": 1576,
  "div": 1577,
  "diyar": 1578,
  "dum": 1579,
  "dü.": 1580,
  "edərəm,": 1581,
  "fəxr": 1582,
  "gördüm": 1583,
  "gözəllər": 1584,
  "gün,": 1585,
  "gəldi": 1586,
  "gəlir,": 1587,
  "gərək,": 1588,
  "halı": 1589,
  "hav": 1590,
  "həvəs": 1591,
  "i?": 1592,
  "ibadət": 1593,
  "kafir": 1594,
  "kömək": 1595,
  "küfr": 1596,
  "mur": 1597,
  "məm": 1598,
  "qanını": 1599,
  "sam": 1600,
  "saq": 1601,
  "sin,": 1602,
  "səbəbdən": 1603,
  "torpağ": 1604,
  "təh": 1605,
  "um,": 1606,
  "verdi,": 1607,
  "vəfa": 1608,
  "xasiyyət": 1609,
  "yola": 1610,
  "zülfü": 1611,
  "zəncir": 1612,
  "çəkən": 1613,
  "üb,": 1614,
  "ümid": 1615,
  "üç": 1616,
  "ından.": 1617,
  "ısı": 1618,
  "ıyam,": 1619,
  "şux": 1620,
  "şükür": 1621,
  "ədəb": 1622,
  "Adəm": 1623,
  "Cam": 1624,
  "Cavad,": 1625,
  "On": 1626,
  "Qul": 1627,
  "Qəd": 1628,
  "Var": 1629,
  "Ver": 1630,
  "alını": 1631,
  "anla": 1632,
  "aqdan": 1633,
  "arif": 1634,
  "asında": 1635,
  "ayna": 1636,
  "ayrılıq": 1637,
  "bayr": 1638,
  "bağlan": 1639,
  "bilir,": 1640,
  "burax": 1641,
  "dilər,": 1642,
  "diy": 1643,
  "dün": 1644,
  "er": 1645,
  "eylə": 1646,
  "fani": 1647,
  "feyz": 1648,
  "fəth": 1649,
  "gözdən": 1650,
  "haqqı": 1651,
  "inə.": 1652,
  "ip": 1653,
  "isini": 1654,
  "istəməz.": 1655,
  "istər,": 1656,
  "iz,": 1657,
  "könlüm,": 1658,
  "lah": 1659,
  "madı,": 1660,
  "meydan": 1661,
  "mün": 1662,
  "nəfəs": 1663,
  "nəqş": 1664,
  "odu": 1665,
  "olduğ": 1666,
  "olmaq": 1667,
  "olum": 1668,
  "olur.": 1669,
  "onunla": 1670,
  "pir": 1671,
  "qaz": 1672,
  "qönçə": 1673,
  "rəqib": 1674,
  "suz": 1675,
  "söz.": 1676,
  "sözünü": 1677,
  "sü": 1678,
  "səhr": 1679,
  "tab": 1680,
  "tor": 1681,
  "təmiz": 1682,
  "varlığ": 1683,
  "xalq": 1684,
  "xəncər.": 1685,
  "yaqut": 1686,
  "yarat": 1687,
  "yaşıl": 1688,
  "yığ": 1689,
  "zahid,": 1690,
  "zind": 1691,
  "Özünü": 1692,
  "çək,": 1693,
  "özünə": 1694,
  "üf": 1695,
  "İç": 1696,
  "ıbdır": 1697,
  "Şirvan": 1698,
  "şahı": 1699,
  "şeytan": 1700,
  "şəf": 1701,
  "əhli-": 1702,
  "ələri": 1703,
  "əmə": 1704,
  "əsas": 1705,
  "əziz": 1706,
  "Bu,": 1707,
  "Xaqan": 1708,
  "ahım": 1709,
  "almaq": 1710,
  "ayağ": 1711,
  "açıb": 1712,
  "açıb,": 1713,
  "açıq": 1714,
  "başa": 1715,
  "budur,": 1716,
  "bəzən": 1717,
  "canım,": 1718,
  "cəl": 1719,
  "dol": 1720,
  "dun": 1721,
  "dığı": 1722,
  "dəv": 1723,
  "dəyər.": 1724,
  "et!": 1725,
  "etsin": 1726,
  "etsə": 1727,
  "getmə!": 1728,
  "gizlət": 1729,
  "gördü,": 1730,
  "göylərə": 1731,
  "gözümdən": 1732,
  "gülüst": 1733,
  "həb": 1734,
  "həq": 1735,
  "ibdir,": 1736,
  "imam": 1737,
  "imiş.": 1738,
  "könlüm.": 1739,
  "kəs,": 1740,
  "mil": 1741,
  "mis": 1742,
  "mişəm": 1743,
  "nəh": 1744,
  "olduğu": 1745,
  "olma": 1746,
  "pərvanə": 1747,
  "quşu": 1748,
  "qəm,": 1749,
  "sax": 1750,
  "sevgili": 1751,
  "sənsən,": 1752,
  "taxt": 1753,
  "tutmuş": 1754,
  "tədbir": 1755,
  "var?": 1756,
  "verər": 1757,
  "vəsl": 1758,
  "xəncər": 1759,
  "yada": 1760,
  "yerdən": 1761,
  "yey": 1762,
  "yük": 1763,
  "yəqin": 1764,
  "zülfünü": 1765,
  "zəhər": 1766,
  "Çün": 1767,
  "çıxar,": 1768,
  "özüm": 1769,
  "İş": 1770,
  "Əs": 1771,
  "əndir": 1772,
  "əyəm,": 1773,
  "\"Ey": 1774,
  "An": 1775,
  "Bəd": 1776,
  "Görün": 1777,
  "Göy": 1778,
  "Hicr": 1779,
  "Həq": 1780,
  "Kövsər": 1781,
  "Məndən": 1782,
  "Qara": 1783,
  "Tər": 1784,
  "a!": 1785,
  "alına": 1786,
  "ama": 1787,
  "artır": 1788,
  "atın": 1789,
  "ayın": 1790,
  "baxış": 1791,
  "başı": 1792,
  "beş": 1793,
  "bircə": 1794,
  "dilə": 1795,
  "dolaş": 1796,
  "dür.": 1797,
  "də.": 1798,
  "dəmir": 1799,
  "etibar": 1800,
  "etsən,": 1801,
  "eyləy": 1802,
  "görmək": 1803,
  "görəndə": 1804,
  "ilər,": 1805,
  "isən,": 1806,
  "kamal": 1807,
  "kim,": 1808,
  "küç": 1809,
  "larda": 1810,
  "lis": 1811,
  "madan": 1812,
  "maz.": 1813,
  "mənzil": 1814,
  "məsin": 1815,
  "məz.": 1816,
  "niz": 1817,
  "nöqsan": 1818,
  "olmadı.": 1819,
  "oxuyur": 1820,
  "pərvan": 1821,
  "qiymət": 1822,
  "qəb": 1823,
  "qəl": 1824,
  "qəmdən": 1825,
  "qərib": 1826,
  "rəngi": 1827,
  "saçının": 1828,
  "sirri": 1829,
  "sözlər": 1830,
  "sün": 1831,
  "səb": 1832,
  "tutub,": 1833,
  "tərəfə": 1834,
  "u.": 1835,
  "xəyalı": 1836,
  "yüksəl": 1837,
  "Ünsüri.": 1838,
  "çün": 1839,
  "çəkib,": 1840,
  "üt": 1841,
  "İsmayıl": 1842,
  "İst": 1843,
  "Şam": 1844,
  "şövq": 1845,
  "şəhər": 1846,
  "şərəf": 1847,
  "ərdir": 1848,
  "əğ": 1849,
  "-i": 1850,
  "Amma": 1851,
  "Cavad!": 1852,
  "Haqqdan": 1853,
  "Hey": 1854,
  "Hələ": 1855,
  "Qızıl": 1856,
  "Saç": 1857,
  "Seyyid,": 1858,
  "Tək": 1859,
  "alov": 1860,
  "anını": 1861,
  "asız": 1862,
  "bağç": 1863,
  "bu,": 1864,
  "bəri,": 1865,
  "desəm,": 1866,
  "dodağ": 1867,
  "döz": 1868,
  "dünyadan": 1869,
  "düy": 1870,
  "düşdü.": 1871,
  "düşmüş": 1872,
  "düşər,": 1873,
  "dərgah": 1874,
  "edib.": 1875,
  "eşqi": 1876,
  "fikr": 1877,
  "fəğan": 1878,
  "gecə-gündüz": 1879,
  "görüb,": 1880,
  "gözünün": 1881,
  "gülüstan": 1882,
  "gəl!": 1883,
  "gəlir": 1884,
  "gənc": 1885,
  "hamı": 1886,
  "hilal": 1887,
  "inan": 1888,
  "indir": 1889,
  "irə": 1890,
  "kan": 1891,
  "kimi.": 1892,
  "kök": 1893,
  "könlümə": 1894,
  "lalə": 1895,
  "larla": 1896,
  "lərdə": 1897,
  "lərim": 1898,
  "mi?": 1899,
  "möhtac": 1900,
  "növ": 1901,
  "qanı": 1902,
  "qibl": 1903,
  "qismət": 1904,
  "qon": 1905,
  "quy": 1906,
  "rəhmət": 1907,
  "saqi,": 1908,
  "sevg": 1909,
  "sevgil": 1910,
  "sevinc": 1911,
  "siz,": 1912,
  "sədəf": 1913,
  "sənsiz": 1914,
  "verdi.": 1915,
  "vəl": 1916,
  "xəl": 1917,
  "xər": 1918,
  "yarp": 1919,
  "yağ": 1920,
  "zülfünə": 1921,
  "zəl": 1922,
  "Çək": 1923,
  "çalış": 1924,
  "çiçək": 1925,
  "çoxdur,": 1926,
  "çəkdi,": 1927,
  "çəmən": 1928,
  "öy": 1929,
  "ümü": 1930,
  "ümə": 1931,
  "ı!": 1932,
  "ı?": 1933,
  "ımı,": 1934,
  "ını.": 1935,
  "ıya": 1936,
  "şamı": 1937,
  "şərabı": 1938,
  "Əh": 1939,
  "əli,": 1940,
  "əlində": 1941,
  "ərdir,": 1942,
  "ərəm": 1943,
  "əyə,": 1944,
  "!\"": 1945,
  "Ab": 1946,
  "Ayrılıq": 1947,
  "Canım": 1948,
  "Düşmən": 1949,
  "El": 1950,
  "Gər": 1951,
  "Hicran": 1952,
  "Ləl": 1953,
  "Mər": 1954,
  "Naz": 1955,
  "Neçə": 1956,
  "Pər": 1957,
  "Tur": 1958,
  "Zülm": 1959,
  "aman": 1960,
  "amət": 1961,
  "anlığ": 1962,
  "aram,": 1963,
  "arət": 1964,
  "atı": 1965,
  "ağıllı": 1966,
  "ağın": 1967,
  "bayram": 1968,
  "bağrımı": 1969,
  "boyun": 1970,
  "bür": 1971,
  "daxil": 1972,
  "doy": 1973,
  "düyün": 1974,
  "dərs": 1975,
  "dəst": 1976,
  "getdi": 1977,
  "gil": 1978,
  "gizl": 1979,
  "göyə": 1980,
  "gözlərin": 1981,
  "gülş": 1982,
  "gündə": 1983,
  "gəldin!": 1984,
  "hasil": 1985,
  "hazır": 1986,
  "huş": 1987,
  "ig": 1988,
  "ilərin": 1989,
  "imi,": 1990,
  "irdi.": 1991,
  "isi,": 1992,
  "itir": 1993,
  "iv": 1994,
  "iyyəti": 1995,
  "işin": 1996,
  "işıq": 1997,
  "kür": 1998,
  "kəlam": 1999,
  "luğ": 2000,
  "lığı": 2001,
  "ləm": 2002,
  "lərindən": 2003,
  "ma.": 2004,
  "mah": 2005,
  "mu": 2006,
  "möcüz": 2007,
  "mütləq": 2008,
  "məndə": 2009,
  "məti": 2010,
  "nəf": 2011,
  "nəz": 2012,
  "oduna": 2013,
  "olmuşdur.": 2014,
  "oxu": 2015,
  "padşah": 2016,
  "peyğəmbər": 2017,
  "piş": 2018,
  "qazan": 2019,
  "qey": 2020,
  "qeyr": 2021,
  "qəmz": 2022,
  "rüsvay": 2023,
  "sab": 2024,
  "saldı,": 2025,
  "saz": 2026,
  "seç": 2027,
  "sur": 2028,
  "süfr": 2029,
  "səadət": 2030,
  "sərgərdan": 2031,
  "təkrar": 2032,
  "uda": 2033,
  "udur,": 2034,
  "vermiş": 2035,
  "xumar": 2036,
  "zikr": 2037,
  "zir": 2038,
  "çatdı,": 2039,
  "öv": 2040,
  "övl": 2041,
  "özün": 2042,
  "ında.": 2043,
  "ıram": 2044,
  "ıyla": 2045,
  "şahı,": 2046,
  "ə?": 2047,
  "ərş": 2048,
  "əsər": 2049,
  "ətini": 2050,
  "ətr": 2051,
  "Ad": 2052,
  "Ağıl": 2053,
  "Bundan": 2054,
  "Dövlət": 2055,
  "Gördü": 2056,
  "Məclis": 2057,
  "Mənsur": 2058,
  "Onda": 2059,
  "Qaş": 2060,
  "Tanrı": 2061,
  "Tut": 2062,
  "Vüs": 2063,
  "Yəqin": 2064,
  "amış": 2065,
  "anım,": 2066,
  "arasında": 2067,
  "arx": 2068,
  "ayan": 2069,
  "ağlam": 2070,
  "bəz": 2071,
  "bəzək": 2072,
  "cahil": 2073,
  "canımın": 2074,
  "daşı": 2075,
  "dedilər,": 2076,
  "deyə,": 2077,
  "doğr": 2078,
  "düşər": 2079,
  "dədir,": 2080,
  "ehtiyac": 2081,
  "gö": 2082,
  "göndər": 2083,
  "gör!": 2084,
  "göydə": 2085,
  "gözəllik": 2086,
  "gəd": 2087,
  "gəlib,": 2088,
  "halımı": 2089,
  "hünər": 2090,
  "idim,": 2091,
  "iyin": 2092,
  "kölg": 2093,
  "kənd": 2094,
  "kəsil": 2095,
  "ları,": 2096,
  "manı": 2097,
  "mişəm,": 2098,
  "mun": 2099,
  "möhkəm": 2100,
  "mır": 2101,
  "mışam,": 2102,
  "məgər": 2103,
  "mərəm,": 2104,
  "məş": 2105,
  "niş": 2106,
  "nuru": 2107,
  "nuru,": 2108,
  "oda": 2109,
  "pəri,": 2110,
  "qa": 2111,
  "quru": 2112,
  "qüs": 2113,
  "qəz": 2114,
  "ruz": 2115,
  "rü": 2116,
  "sal,": 2117,
  "sanma": 2118,
  "sən?": 2119,
  "sənə.": 2120,
  "tağ": 2121,
  "varsa,": 2122,
  "verib,": 2123,
  "vəfasız": 2124,
  "vəz": 2125,
  "xəlvət": 2126,
  "yanan": 2127,
  "zam": 2128,
  "zəhmət": 2129,
  "çevir": 2130,
  "çeş": 2131,
  "çıxdı,": 2132,
  "ınız": 2133,
  "ıram,": 2134,
  "şərbət": 2135,
  "əlbəttə,": 2136,
  "ənn": 2137,
  "əsi.": 2138,
  "əst": 2139,
  "ətəy": 2140,
  "At": 2141,
  "Canımı": 2142,
  "Gecə": 2143,
  "Har": 2144,
  "Hərçənd": 2145,
  "Kər": 2146,
  "Qaf": 2147,
  "Qorx": 2148,
  "Su": 2149,
  "a?": 2150,
  "abad": 2151,
  "abi-həyat": 2152,
  "ansız": 2153,
  "asan,": 2154,
  "atəşi": 2155,
  "axt": 2156,
  "ağl": 2157,
  "bah": 2158,
  "bildir": 2159,
  "bilər": 2160,
  "budur.": 2161,
  "bənz": 2162,
  "candan": 2163,
  "cavab": 2164,
  "ceyr": 2165,
  "cövr": 2166,
  "dakı": 2167,
  "dini": 2168,
  "diyi": 2169,
  "dodağın": 2170,
  "dost!": 2171,
  "dost,": 2172,
  "dül": 2173,
  "dəry": 2174,
  "edən,": 2175,
  "etməz.": 2176,
  "fil": 2177,
  "fəz": 2178,
  "fəğ": 2179,
  "görmüş": 2180,
  "görməy": 2181,
  "görüş": 2182,
  "gündən": 2183,
  "id,": 2184,
  "ilik": 2185,
  "imdir,": 2186,
  "imdir.": 2187,
  "indi,": 2188,
  "istəm": 2189,
  "işim": 2190,
  "kölgə": 2191,
  "könlü": 2192,
  "kən,": 2193,
  "kəsin": 2194,
  "lidir,": 2195,
  "lıqdan": 2196,
  "ləzz": 2197,
  "mamış": 2198,
  "mehrab": 2199,
  "mülkünün": 2200,
  "müştaqam.": 2201,
  "mədi": 2202,
  "məhrum": 2203,
  "nəm": 2204,
  "olar?": 2205,
  "orada": 2206,
  "peyman": 2207,
  "qaldı,": 2208,
  "qarşı": 2209,
  "qopar": 2210,
  "qulun": 2211,
  "qəzəb": 2212,
  "rahatlıq": 2213,
  "salmış": 2214,
  "saxlay": 2215,
  "suy": 2216,
  "sənsiz.": 2217,
  "sənət": 2218,
  "unut": 2219,
  "usu": 2220,
  "uğ": 2221,
  "xalqı": 2222,
  "yandı,": 2223,
  "yazıq": 2224,
  "yeli": 2225,
  "yetər": 2226,
  "Çıx": 2227,
  "çı": 2228,
  "çır": 2229,
  "çəkdi": 2230,
  "ön": 2231,
  "üzə": 2232,
  "İr": 2233,
  "ımız.": 2234,
  "Şər": 2235,
  "şaha": 2236,
  "əcəb": 2237,
  "ədalət": 2238,
  "ənlər,": 2239,
  "ər?": 2240,
  "ərsən,": 2241,
  "ərəm.": 2242,
  "\",": 2243,
  "Axırda": 2244,
  "Bəzən": 2245,
  "Daim": 2246,
  "Ded": 2247,
  "E": 2248,
  "Hikmət": 2249,
  "Həmişə": 2250,
  "Kül": 2251,
  "Mis": 2252,
  "Mü": 2253,
  "Məhəmməd": 2254,
  "Məst": 2255,
  "Nəsim": 2256,
  "Od": 2257,
  "Səbr": 2258,
  "Vaqifin": 2259,
  "Xaqaninin": 2260,
  "Yəni": 2261,
  "afət": 2262,
  "ahı": 2263,
  "ahımın": 2264,
  "alının": 2265,
  "ap": 2266,
  "arını": 2267,
  "ağzı": 2268,
  "ağır": 2269,
  "bağı": 2270,
  "başıma": 2271,
  "bir-bir": 2272,
  "budaq": 2273,
  "bux": 2274,
  "cananın": 2275,
  "cavan": 2276,
  "dilbərin": 2277,
  "dili": 2278,
  "duz": 2279,
  "düny": 2280,
  "düşün": 2281,
  "dəyər": 2282,
  "edim": 2283,
  "etdim": 2284,
  "etsin,": 2285,
  "etsin.": 2286,
  "fikri": 2287,
  "fir": 2288,
  "görünür.": 2289,
  "göstərən": 2290,
  "haq": 2291,
  "huri": 2292,
  "hərçənd": 2293,
  "ih": 2294,
  "ilahi": 2295,
  "ili": 2296,
  "istərəm,": 2297,
  "iti": 2298,
  "izin": 2299,
  "j": 2300,
  "ki:": 2301,
  "köpək": 2302,
  "larından": 2303,
  "liklə": 2304,
  "man.": 2305,
  "mat": 2306,
  "meydana": 2307,
  "meyxan": 2308,
  "müsəlman": 2309,
  "nəfs": 2310,
  "olmuş,": 2311,
  "ols": 2312,
  "olum,": 2313,
  "oxunu": 2314,
  "peş": 2315,
  "poz": 2316,
  "qardaş": 2317,
  "qarş": 2318,
  "qın": 2319,
  "qəmi": 2320,
  "ran": 2321,
  "rini": 2322,
  "sizə": 2323,
  "səhər,": 2324,
  "sənin.": 2325,
  "səxavət": 2326,
  "tikan": 2327,
  "tufan": 2328,
  "tut,": 2329,
  "ucal": 2330,
  "udu": 2331,
  "yaxş": 2332,
  "yetər.": 2333,
  "yolda": 2334,
  "yoxdur!": 2335,
  "yırt": 2336,
  "zərər": 2337,
  "çağır": 2338,
  "çəkmə,": 2339,
  "ömr": 2340,
  "ör": 2341,
  "üq": 2342,
  "ürəyim": 2343,
  "ı*.": 2344,
  "ımdır.": 2345,
  "ınca": 2346,
  "ıq,": 2347,
  "Şərab": 2348,
  "şair": 2349,
  "şəb": 2350,
  "şən": 2351,
  "əsiz": 2352,
  "əsr": 2353,
  "əyil": 2354,
  "əzəl": 2355,
  "Aşiqin": 2356,
  "Bax,": 2357,
  "Cənnət": 2358,
  "Daha": 2359,
  "Dedilər:": 2360,
  "Di": 2361,
  "Dodağın": 2362,
  "Dörd": 2363,
  "Fazil": 2364,
  "Fərhad": 2365,
  "Həsrət": 2366,
  "Məndə": 2367,
  "Məsih": 2368,
  "Niyə": 2369,
  "Saçının": 2370,
  "Sev": 2371,
  "Sərv": 2372,
  "Xızr": 2373,
  "abı": 2374,
  "agah": 2375,
  "ah-": 2376,
  "alı,": 2377,
  "aq.": 2378,
  "arı,": 2379,
  "aslan": 2380,
  "axırda": 2381,
  "ayrılığ": 2382,
  "ayıl": 2383,
  "az.": 2384,
  "açdı,": 2385,
  "ağacı": 2386,
  "ağından": 2387,
  "aşiqin": 2388,
  "bağl": 2389,
  "bağının": 2390,
  "bi": 2391,
  "bost": 2392,
  "boğaz": 2393,
  "coş": 2394,
  "cəhənn": 2395,
  "dilər": 2396,
  "do": 2397,
  "dodaqlarının": 2398,
  "dua": 2399,
  "dum,": 2400,
  "dövranın": 2401,
  "döy": 2402,
  "dük": 2403,
  "dığım": 2404,
  "dərdimə": 2405,
  "edil": 2406,
  "edim,": 2407,
  "etmişəm,": 2408,
  "etmə.": 2409,
  "etməy": 2410,
  "eyn": 2411,
  "fəqir": 2412,
  "göz,": 2413,
  "gəlmir,": 2414,
  "ha": 2415,
  "halda": 2416,
  "hanı?": 2417,
  "hün": 2418,
  "ibdir": 2419,
  "ikən": 2420,
  "iləri": 2421,
  "iniz": 2422,
  "irlər": 2423,
  "ix": 2424,
  "kün": 2425,
  "likdən": 2426,
  "maram,": 2427,
  "meyv": 2428,
  "müddət": 2429,
  "mülkü": 2430,
  "məndən,": 2431,
  "mərəm": 2432,
  "məsi": 2433,
  "nig": 2434,
  "olan,": 2435,
  "olmaram.": 2436,
  "olmasa": 2437,
  "olmasa,": 2438,
  "onun,": 2439,
  "parlayan": 2440,
  "parça": 2441,
  "pənah": 2442,
  "qo": 2443,
  "qoca": 2444,
  "qol": 2445,
  "qoyub": 2446,
  "qurb": 2447,
  "qı": 2448,
  "qılıncı": 2449,
  "qəf": 2450,
  "qəflət": 2451,
  "qənd": 2452,
  "ra": 2453,
  "rak": 2454,
  "rast": 2455,
  "saldı": 2456,
  "saray": 2457,
  "sehr": 2458,
  "suya": 2459,
  "səm,": 2460,
  "səndə": 2461,
  "səninlə": 2462,
  "tamamilə": 2463,
  "tu": 2464,
  "tutdu,": 2465,
  "təsvir": 2466,
  "təz": 2467,
  "udur.": 2468,
  "ulu": 2469,
  "undan,": 2470,
  "vəd": 2471,
  "vəsf": 2472,
  "xarab": 2473,
  "xoşbəxt": 2474,
  "xoşdur.": 2475,
  "xəbərdar": 2476,
  "yanı": 2477,
  "yaxın": 2478,
  "yox.": 2479,
  "Ömr": 2480,
  "Ürək": 2481,
  "çıxdı": 2482,
  "çəkin": 2483,
  "ök": 2484,
  "ölk": 2485,
  "İstər": 2486,
  "ımla": 2487,
  "ısan,": 2488,
  "şa": 2489,
  "şöhrət": 2490,
  "şəfa": 2491,
  "Ənbər": 2492,
  "Əzəldən": 2493,
  "əhər": 2494,
  "əlini": 2495,
  "əll": 2496,
  "əman": 2497,
  "əsidir,": 2498,
  "ətinə": 2499,
  "'": 2500,
  "Aş": 2501,
  "Birdən": 2502,
  "Bizim": 2503,
  "Bəy": 2504,
  "Dedim:": 2505,
  "Ey,": 2506,
  "Fələyin": 2507,
  "Gərçi": 2508,
  "Hal": 2509,
  "Həqiqət": 2510,
  "Məş": 2511,
  "Ney": 2512,
  "Oğ": 2513,
  "Rey": 2514,
  "Sin": 2515,
  "Sonra": 2516,
  "Səb": 2517,
  "Səndə": 2518,
  "Təb": 2519,
  "Xud": 2520,
  "ab,": 2521,
  "alar,": 2522,
  "alış": 2523,
  "asim": 2524,
  "atar": 2525,
  "axan": 2526,
  "ağlayan": 2527,
  "ağı,": 2528,
  "bilsin": 2529,
  "bürün": 2530,
  "bəb": 2531,
  "bəlkə": 2532,
  "bən": 2533,
  "bərabər": 2534,
  "ca,": 2535,
  "canıma": 2536,
  "cır": 2537,
  "cə,": 2538,
  "cəhənnəm": 2539,
  "das": 2540,
  "dav": 2541,
  "divanə": 2542,
  "doldur": 2543,
  "dünyada,": 2544,
  "dərdimi": 2545,
  "dərhal": 2546,
  "dərviş": 2547,
  "elə,": 2548,
  "evdə": 2549,
  "fəq": 2550,
  "fərq": 2551,
  "getdi.": 2552,
  "gözəllərin": 2553,
  "gülü": 2554,
  "gündüz": 2555,
  "hansı": 2556,
  "ilin": 2557,
  "im?": 2558,
  "ini.": 2559,
  "iyy": 2560,
  "keçdi,": 2561,
  "kiçik": 2562,
  "ladı": 2563,
  "lah,": 2564,
  "ləd": 2565,
  "mağı": 2566,
  "mı,": 2567,
  "məc": 2568,
  "məktəb": 2569,
  "mənəm.": 2570,
  "məqam": 2571,
  "niqab": 2572,
  "nəsib": 2573,
  "olmasın,": 2574,
  "paltar": 2575,
  "parç": 2576,
  "qalan": 2577,
  "qalıb,": 2578,
  "qana": 2579,
  "qaranlıq": 2580,
  "qarğ": 2581,
  "qarış": 2582,
  "qop": 2583,
  "qum": 2584,
  "qədr": 2585,
  "rahatlığ": 2586,
  "salıb": 2587,
  "su,": 2588,
  "sözün": 2589,
  "sübut": 2590,
  "sır": 2591,
  "səni,": 2592,
  "sənin,": 2593,
  "sərgərd": 2594,
  "təbiət": 2595,
  "ucu": 2596,
  "uyam,": 2597,
  "vanı": 2598,
  "vardı,": 2599,
  "vaxtıdır,": 2600,
  "verir": 2601,
  "vəfalı": 2602,
  "xalın": 2603,
  "yayıl": 2604,
  "yağış": 2605,
  "yum": 2606,
  "yüksək": 2607,
  "zamanın": 2608,
  "zay": 2609,
  "çatdı.": 2610,
  "çöhr": 2611,
  "çünki,": 2612,
  "çılpaq": 2613,
  "çəkər,": 2614,
  "ü.": 2615,
  "ünü,": 2616,
  "üyə": 2617,
  "ımızdır.": 2618,
  "Şahın": 2619,
  "şahlar": 2620,
  "şik": 2621,
  "Əf": 2622,
  "əcc": 2623,
  "ərdən": 2624,
  "ərək,": 2625,
  "əsən.": 2626,
  "ətdir,": 2627,
  "ətinin": 2628,
  "’": 2629,
  "..": 2630,
  "Bahar": 2631,
  "Başqa": 2632,
  "Bəxt": 2633,
  "Cav": 2634,
  "Cöv": 2635,
  "Cəm": 2636,
  "Dünən": 2637,
  "Eşqinin": 2638,
  "Gecələr": 2639,
  "Hamısı": 2640,
  "Key": 2641,
  "Mək": 2642,
  "Məl": 2643,
  "Onların": 2644,
  "Qər": 2645,
  "Ruh": 2646,
  "Saq": 2647,
  "Sultan": 2648,
  "Təzə": 2649,
  "Vey": 2650,
  "Yarın": 2651,
  "Zər": 2652,
  "ail": 2653,
  "anının": 2654,
  "axı": 2655,
  "ayr": 2656,
  "ağının": 2657,
  "ağız": 2658,
  "bağında": 2659,
  "behişt": 2660,
  "bey": 2661,
  "bilmirəm": 2662,
  "bilməd": 2663,
  "bol": 2664,
  "camı": 2665,
  "canın": 2666,
  "daima": 2667,
  "dara": 2668,
  "dedilər.": 2669,
  "deyilmi?": 2670,
  "dilər.": 2671,
  "dostlar": 2672,
  "doğuldu.": 2673,
  "duy": 2674,
  "dövran,": 2675,
  "dövründə": 2676,
  "döş": 2677,
  "düşən": 2678,
  "dərdini": 2679,
  "dərin": 2680,
  "edərəm": 2681,
  "etdin.": 2682,
  "eşqə": 2683,
  "fan": 2684,
  "fitn": 2685,
  "fəryadı": 2686,
  "fəs": 2687,
  "gizlən": 2688,
  "görmədim.": 2689,
  "görməz": 2690,
  "gözünü": 2691,
  "gülşən": 2692,
  "gəlmiş": 2693,
  "gəlməz": 2694,
  "hala": 2695,
  "hökmü": 2696,
  "icə": 2697,
  "idim.": 2698,
  "imiz.": 2699,
  "imk": 2700,
  "indir,": 2701,
  "insaf": 2702,
  "irdi": 2703,
  "istəyirsən,": 2704,
  "isən": 2705,
  "iya": 2706,
  "izi": 2707,
  "izzət": 2708,
  "işlər": 2709,
  "ki?": 2710,
  "kimə": 2711,
  "lakin,": 2712,
  "laq": 2713,
  "lə.": 2714,
  "malı": 2715,
  "maya": 2716,
  "məlhəm": 2717,
  "mənəm": 2718,
  "məx": 2719,
  "məyən": 2720,
  "nifrət": 2721,
  "nisbət": 2722,
  "nəyə": 2723,
  "olma.": 2724,
  "olmadı": 2725,
  "olmuş.": 2726,
  "onlara": 2727,
  "onları": 2728,
  "ordu": 2729,
  "ovçu": 2730,
  "parılt": 2731,
  "pey": 2732,
  "qib": 2733,
  "qonaq": 2734,
  "qox": 2735,
  "qurul": 2736,
  "qədd": 2737,
  "reyh": 2738,
  "rin": 2739,
  "rüsva": 2740,
  "rəva": 2741,
  "sah": 2742,
  "saral": 2743,
  "sual": 2744,
  "surəti": 2745,
  "söyləd": 2746,
  "sözləri": 2747,
  "sıx": 2748,
  "sığ": 2749,
  "səhv": 2750,
  "səsi": 2751,
  "tamaş": 2752,
  "tanış": 2753,
  "taq": 2754,
  "titr": 2755,
  "tur": 2756,
  "türk": 2757,
  "təş": 2758,
  "una,": 2759,
  "uz,": 2760,
  "val": 2761,
  "verər.": 2762,
  "vir": 2763,
  "vücudu": 2764,
  "vətən": 2765,
  "xatırl": 2766,
  "xuraman": 2767,
  "xəbərsiz": 2768,
  "yanar": 2769,
  "yaram": 2770,
  "yaxşılıq": 2771,
  "yeddi": 2772,
  "yeni": 2773,
  "Ömür": 2774,
  "çıxan": 2775,
  "çəkər": 2776,
  "ömrüm": 2777,
  "öyrən": 2778,
  "özgə": 2779,
  "İl": 2780,
  "İs": 2781,
  "ırsan,": 2782,
  "Şad": 2783,
  "şid": 2784,
  "şikayət": 2785,
  "ədal": 2786,
  "əhval": 2787,
  "əlif": 2788,
  "əmən": 2789,
  "əsla": 2790,
  "Ac": 2791,
  "Ağz": 2792,
  "Buna": 2793,
  "Bəl": 2794,
  "Cah": 2795,
  "Cəf": 2796,
  "Danış": 2797,
  "Dövr": 2798,
  "Dəf": 2799,
  "Dəm": 2800,
  "Gizli": 2801,
  "Gördüm": 2802,
  "Gözüm": 2803,
  "Gənc": 2804,
  "Hacı": 2805,
  "Ham": 2806,
  "Hanı": 2807,
  "Harada": 2808,
  "Könlümün": 2809,
  "Kənan": 2810,
  "Müş": 2811,
  "Mənəm": 2812,
  "Nuh": 2813,
  "Nəs": 2814,
  "Pak": 2815,
  "Qap": 2816,
  "Rəh": 2817,
  "Rəhman": 2818,
  "Sür": 2819,
  "Səba": 2820,
  "Səf": 2821,
  "Torp": 2822,
  "Xal": 2823,
  "Xan": 2824,
  "Xəta": 2825,
  "Zak": 2826,
  "Zülfün": 2827,
  "alim": 2828,
  "allah,": 2829,
  "ana,": 2830,
  "ans": 2831,
  "anın,": 2832,
  "aradan": 2833,
  "arz": 2834,
  "arına": 2835,
  "axmaq": 2836,
  "ayağa": 2837,
  "az,": 2838,
  "ağa,": 2839,
  "ağında": 2840,
  "bağrım": 2841,
  "belə,": 2842,
  "bizi": 2843,
  "bun": 2844,
  "buna": 2845,
  "bunun": 2846,
  "bül": 2847,
  "bəh": 2848,
  "cahanda": 2849,
  "cahanı": 2850,
  "cama": 2851,
  "camalını": 2852,
  "cü": 2853,
  "cəh": 2854,
  "cəs": 2855,
  "demək": 2856,
  "din,": 2857,
  "durub": 2858,
  "dönüb,": 2859,
  "dürr": 2860,
  "dılar.": 2861,
  "dığın": 2862,
  "dərk": 2863,
  "etdiyi": 2864,
  "etmədi,": 2865,
  "fəzil": 2866,
  "gerçək": 2867,
  "get,": 2868,
  "görmüşəm.": 2869,
  "görəndə.": 2870,
  "gözümə": 2871,
  "gülə": 2872,
  "günəş,": 2873,
  "gəlmir?": 2874,
  "hümmət": 2875,
  "həm.": 2876,
  "həmin": 2877,
  "həqiq": 2878,
  "hərf": 2879,
  "həs": 2880,
  "həy": 2881,
  "i:": 2882,
  "ikdən": 2883,
  "incit": 2884,
  "içind": 2885,
  "içindəyəm.": 2886,
  "karvan": 2887,
  "kas": 2888,
  "kef": 2889,
  "kimidir,": 2890,
  "kiş": 2891,
  "könlünü": 2892,
  "ların,": 2893,
  "layan": 2894,
  "lik,": 2895,
  "lütfü": 2896,
  "lıqla": 2897,
  "madı.": 2898,
  "man,": 2899,
  "manın": 2900,
  "ması": 2901,
  "mol": 2902,
  "möh": 2903,
  "möhn": 2904,
  "mülkünə": 2905,
  "məclisi": 2906,
  "mənası": 2907,
  "mərcan": 2908,
  "nitq": 2909,
  "nədən": 2910,
  "nəq": 2911,
  "olaraq": 2912,
  "oldum": 2913,
  "olmadı,": 2914,
  "olmayan": 2915,
  "ort": 2916,
  "oxuy": 2917,
  "oyan": 2918,
  "oğlu!": 2919,
  "pəriş": 2920,
  "q,": 2921,
  "qulaq": 2922,
  "qöv": 2923,
  "qədəhi": 2924,
  "ruzig": 2925,
  "rəs": 2926,
  "rəğbət": 2927,
  "saldı.": 2928,
  "sevgilim,": 2929,
  "soyuq": 2930,
  "susamış": 2931,
  "suyunu": 2932,
  "sözə": 2933,
  "sığmaram.": 2934,
  "səba": 2935,
  "sərdar": 2936,
  "sərvə": 2937,
  "tir": 2938,
  "torpaqla": 2939,
  "torpağına": 2940,
  "tutu": 2941,
  "təd": 2942,
  "təkcə": 2943,
  "udun": 2944,
  "verir.": 2945,
  "verər,": 2946,
  "vər": 2947,
  "yaman": 2948,
  "yanağının": 2949,
  "yandırdı,": 2950,
  "yarı": 2951,
  "yazıl": 2952,
  "yoxsul": 2953,
  "zad": 2954,
  "zalım": 2955,
  "ziyan": 2956,
  "zəfər": 2957,
  "zəng": 2958,
  "çap": 2959,
  "çağ": 2960,
  "çul": 2961,
  "çör": 2962,
  "çörək": 2963,
  "çıxıb": 2964,
  "ölkəs": 2965,
  "özündən": 2966,
  "üdür": 2967,
  "üzl": 2968,
  "ılıq": 2969,
  "şahid": 2970,
  "şer": 2971,
  "şöl": 2972,
  "Əq": 2973,
  "əcə": 2974,
  "ədi": 2975,
  "əhd": 2976,
  "əl-": 2977,
  "əlli": 2978,
  "əndir.": 2979,
  "ənə,": 2980,
  "ətindən": 2981,
  "ətraf": 2982,
  "ətri": 2983,
  "əyini": 2984,
  "əyri": 2985,
  "əzizim,": 2986,
  "20": 2987,
  ":::": 2988,
  "Budur": 2989,
  "Bədən": 2990,
  "Bəli,": 2991,
  "Bəsdir": 2992,
  "Canı": 2993,
  "Daş": 2994,
  "Din": 2995,
  "Doğ": 2996,
  "Dünyanı": 2997,
  "Eş": 2998,
  "Hüsnünün": 2999,
  "Həs": 3000,
  "Həyat": 3001,
  "Kimsə": 3002,
  "Kəs": 3003,
  "Molla": 3004,
  "Mür": 3005,
  "Məd": 3006,
  "Məqsəd": 3007,
  "Məryəm": 3008,
  "Natəv": 3009,
  "Nədir": 3010,
  "Qəl": 3011,
  "Rizvan": 3012,
  "Saqi": 3013,
  "Sar": 3014,
  "Sus": 3015,
  "Söyləd": 3016,
  "Ulduz": 3017,
  "Yas": 3018,
  "Yaşıl": 3019,
  "Yeddi": 3020,
  "ab.": 3021,
  "adı.": 3022,
  "aldan": 3023,
  "aldı": 3024,
  "alıb": 3025,
  "alır,": 3026,
  "arzus": 3027,
  "astan": 3028,
  "ata": 3029,
  "atını": 3030,
  "avar": 3031,
  "azı": 3032,
  "aç,": 3033,
  "ağr": 3034,
  "ağım": 3035,
  "b,": 3036,
  "başından": 3037,
  "bid": 3038,
  "birdir,": 3039,
  "bo": 3040,
  "boyn": 3041,
  "bənzətdim.": 3042,
  "bəti": 3043,
  "cil": 3044,
  "dalğ": 3045,
  "dağı": 3046,
  "dağıt": 3047,
  "dedi,": 3048,
  "dedim,": 3049,
  "deyə": 3050,
  "digər": 3051,
  "dilli": 3052,
  "dir?": 3053,
  "diyim": 3054,
  "dodaqları": 3055,
  "dodağından": 3056,
  "durur.": 3057,
  "düşdüm,": 3058,
  "düşər.": 3059,
  "edirsən,": 3060,
  "edirəm,": 3061,
  "edəndə": 3062,
  "etdir": 3063,
  "evi": 3064,
  "eylə,": 3065,
  "eşşək": 3066,
  "fayda": 3067,
  "faş": 3068,
  "gedər.": 3069,
  "görsənər.": 3070,
  "göstər,": 3071,
  "göydən": 3072,
  "gözləy": 3073,
  "gözünə": 3074,
  "güm": 3075,
  "günəşin": 3076,
  "gərd": 3077,
  "halıma": 3078,
  "halın": 3079,
  "haqqın": 3080,
  "haram": 3081,
  "has": 3082,
  "hücum": 3083,
  "ib-": 3084,
  "ibsən": 3085,
  "idin": 3086,
  "irdi,": 3087,
  "irin": 3088,
  "iyim": 3089,
  "izə": 3090,
  "işdə": 3091,
  "keçər,": 3092,
  "kişi": 3093,
  "kə": 3094,
  "ladı,": 3095,
  "lanan": 3096,
  "landı,": 3097,
  "lü,": 3098,
  "lük": 3099,
  "maqla": 3100,
  "mağın": 3101,
  "murad": 3102,
  "mülkünü": 3103,
  "mı?": 3104,
  "mışam.": 3105,
  "məclisində": 3106,
  "məhşər": 3107,
  "məna": 3108,
  "məq": 3109,
  "mərhəmət": 3110,
  "məyin": 3111,
  "nadan": 3112,
  "naxış": 3113,
  "nurlu": 3114,
  "nəsihət": 3115,
  "odur,": 3116,
  "olacaq": 3117,
  "olaydı,": 3118,
  "olubdur": 3119,
  "oxun": 3120,
  "oxş": 3121,
  "qaldı.": 3122,
  "qapı": 3123,
  "qapıs": 3124,
  "qarşısında": 3125,
  "qaşın": 3126,
  "qiy": 3127,
  "qəfəs": 3128,
  "qəlbinə": 3129,
  "qəmə": 3130,
  "qəsd": 3131,
  "qəza": 3132,
  "razı": 3133,
  "reyhan": 3134,
  "rəti": 3135,
  "sahibi,": 3136,
  "salar": 3137,
  "salıb,": 3138,
  "saçan": 3139,
  "saçın": 3140,
  "sevda": 3141,
  "sit": 3142,
  "susuz": 3143,
  "sübhə": 3144,
  "sındır": 3145,
  "səhif": 3146,
  "sən!": 3147,
  "sənsən": 3148,
  "sərvi-": 3149,
  "tabe": 3150,
  "tamaşa": 3151,
  "torpağı": 3152,
  "tür": 3153,
  "təq": 3154,
  "tərəfdən": 3155,
  "təzəl": 3156,
  "umun": 3157,
  "ust": 3158,
  "utu": 3159,
  "varlıq": 3160,
  "verir,": 3161,
  "vermə": 3162,
  "vermə,": 3163,
  "vüsalını": 3164,
  "xana": 3165,
  "xaqan": 3166,
  "xor": 3167,
  "xəb": 3168,
  "xəz": 3169,
  "yalnız": 3170,
  "yalvar": 3171,
  "yanaq": 3172,
  "yenə.": 3173,
  "yıxıl": 3174,
  "zülmü": 3175,
  "Üzü": 3176,
  "çin": 3177,
  "çoxlu": 3178,
  "çərx": 3179,
  "üsü": 3180,
  "üyü": 3181,
  "üzdən": 3182,
  "üzrə": 3183,
  "İslam": 3184,
  "ıqdan": 3185,
  "Şeyx": 3186,
  "şü": 3187,
  "şəriət": 3188,
  "Ət": 3189,
  "ədi,": 3190,
  "ədən,": 3191,
  "əfsan": 3192,
  "ələ,": 3193,
  "əmr": 3194,
  "ənc": 3195,
  "ətim": 3196,
  "əzbər": 3197,
  "11": 3198,
  "12": 3199,
  "18": 3200,
  "Ahımın": 3201,
  "Allah,": 3202,
  "Artıq": 3203,
  "Bizə": 3204,
  "Bun": 3205,
  "Dodağının": 3206,
  "Göydə": 3207,
  "Haq": 3208,
  "Keç": 3209,
  "Misir": 3210,
  "Mün": 3211,
  "Məcn": 3212,
  "Nam": 3213,
  "Par": 3214,
  "Pəri!": 3215,
  "Pərv": 3216,
  "Qanlı": 3217,
  "Qas": 3218,
  "Qey": 3219,
  "Quran": 3220,
  "Qılınc": 3221,
  "Rəhmanın": 3222,
  "Seyyid": 3223,
  "Sir": 3224,
  "Səl": 3225,
  "Təs": 3226,
  "Vüc": 3227,
  "Xur": 3228,
  "Xəstə": 3229,
  "Xət": 3230,
  "Xəz": 3231,
  "Yusifi": 3232,
  "adan.": 3233,
  "ahü-": 3234,
  "ali": 3235,
  "aln": 3236,
  "altında": 3237,
  "ani": 3238,
  "araq,": 3239,
  "arlar,": 3240,
  "arzul": 3241,
  "asan.": 3242,
  "aydın": 3243,
  "ayna.": 3244,
  "ayrılır.": 3245,
  "ağlar": 3246,
  "ağlay": 3247,
  "aşiq,": 3248,
  "aşiqlərin": 3249,
  "baxma,": 3250,
  "bay": 3251,
  "bağlay": 3252,
  "bağr": 3253,
  "başq": 3254,
  "bilməy": 3255,
  "birdir.": 3256,
  "boyu": 3257,
  "bu.": 3258,
  "böl": 3259,
  "böy": 3260,
  "bəhr": 3261,
  "bəhs": 3262,
  "bəlaya": 3263,
  "bərbad": 3264,
  "bəzəy": 3265,
  "can.": 3266,
  "canan,": 3267,
  "canımız.": 3268,
  "cənnətə": 3269,
  "dadır.": 3270,
  "dastan": 3271,
  "de,": 3272,
  "demə": 3273,
  "demə,": 3274,
  "deyim,": 3275,
  "deyən": 3276,
  "didar": 3277,
  "dinə": 3278,
  "diz": 3279,
  "dodağını": 3280,
  "dolun": 3281,
  "dılar,": 3282,
  "dəli": 3283,
  "dərd-": 3284,
  "dərdim": 3285,
  "dərmanı": 3286,
  "edərəm.": 3287,
  "etib": 3288,
  "evini": 3289,
  "eyib": 3290,
  "eyləm": 3291,
  "eşid": 3292,
  "eşqinin": 3293,
  "fəna": 3294,
  "görməd": 3295,
  "görünür": 3296,
  "görünür,": 3297,
  "götür,": 3298,
  "gülün": 3299,
  "günəşdən": 3300,
  "güz": 3301,
  "gəm": 3302,
  "gərəkməz.": 3303,
  "hiyləgər": 3304,
  "həsəd": 3305,
  "i\"": 3306,
  "iddi": 3307,
  "imdir": 3308,
  "inan,": 3309,
  "incəl": 3310,
  "indəki": 3311,
  "insan.": 3312,
  "insanlar": 3313,
  "intiz": 3314,
  "irsən": 3315,
  "ixtiyar": 3316,
  "iyini": 3317,
  "iyə,": 3318,
  "izah": 3319,
  "içində,": 3320,
  "içən": 3321,
  "iş,": 3322,
  "kil": 3323,
  "körp": 3324,
  "lara,": 3325,
  "laz": 3326,
  "li-": 3327,
  "liyini": 3328,
  "lövh": 3329,
  "masın": 3330,
  "masın,": 3331,
  "masın.": 3332,
  "mışdır": 3333,
  "mışdır,": 3334,
  "məkdən": 3335,
  "məşhur": 3336,
  "nazlı": 3337,
  "nəsl": 3338,
  "nət": 3339,
  "ob": 3340,
  "odur.": 3341,
  "olmuşam": 3342,
  "olmuşdur,": 3343,
  "olsaydı,": 3344,
  "oynar.": 3345,
  "parça-parça": 3346,
  "pərəst": 3347,
  "qabarc": 3348,
  "qalıb": 3349,
  "qanımı": 3350,
  "qanına": 3351,
  "qayn": 3352,
  "qayğ": 3353,
  "qaşı": 3354,
  "qoyma": 3355,
  "qucaq": 3356,
  "qüd": 3357,
  "qə": 3358,
  "qəlbim": 3359,
  "qəmgin": 3360,
  "ruzi": 3361,
  "rəb": 3362,
  "saat": 3363,
  "sadiq": 3364,
  "saxlam": 3365,
  "sevgilinin": 3366,
  "siniz": 3367,
  "sürah": 3368,
  "sız,": 3369,
  "tanı": 3370,
  "tapdı,": 3371,
  "tuf": 3372,
  "tutar,": 3373,
  "tövbə": 3374,
  "təslim": 3375,
  "təzələ!": 3376,
  "təəssüf": 3377,
  "ucundan": 3378,
  "udan": 3379,
  "vardır": 3380,
  "vardır,": 3381,
  "varsa": 3382,
  "versə": 3383,
  "vücud": 3384,
  "xeyli": 3385,
  "xil": 3386,
  "xəzinə": 3387,
  "yalan": 3388,
  "yanağ": 3389,
  "yandıran": 3390,
  "yanğ": 3391,
  "yaradı": 3392,
  "yasəmən": 3393,
  "yağdır": 3394,
  "yaşları": 3395,
  "yeksan": 3396,
  "yen": 3397,
  "yolunun": 3398,
  "yuva": 3399,
  "zindan": 3400,
  "zövqü": 3401,
  "zənn": 3402,
  "Ümid": 3403,
  "Ürəyim": 3404,
  "çu": 3405,
  "çöl": 3406,
  "çəng": 3407,
  "öm": 3408,
  "ört": 3409,
  "öt": 3410,
  "ümün": 3411,
  "İlahi,": 3412,
  "İraq": 3413,
  "ıbdır,": 3414,
  "ım?": 3415,
  "ımı.": 3416,
  "ındakı": 3417,
  "ırsan": 3418,
  "ıt": 3419,
  "Şükür": 3420,
  "şövk": 3421,
  "şərt": 3422,
  "Əc": 3423,
  "Əy": 3424,
  "əfv": 3425,
  "əkdən": 3426,
  "əksi": 3427,
  "əlamət": 3428,
  "əlin": 3429,
  "əlinə": 3430,
  "ələr,": 3431,
  "əndir,": 3432,
  "əql": 3433,
  "ərşə": 3434,
  "ərək": 3435,
  "əsidir.": 3436,
  "əvəz": 3437,
  "əyi,": 3438,
  "о": 3439,
  "***": 3440,
  "10": 3441,
  "13": 3442,
  "14": 3443,
  "15": 3444,
  "16": 3445,
  "17": 3446,
  "Bir-": 3447,
  "Birisi": 3448,
  "Boyn": 3449,
  "Canıma": 3450,
  "Cism": 3451,
  "Deyir": 3452,
  "Dodağ": 3453,
  "Dövran": 3454,
  "Dəclə": 3455,
  "Et": 3456,
  "Fəq": 3457,
  "Gec": 3458,
  "Gözümdən": 3459,
  "Gündüz": 3460,
  "Günəşin": 3461,
  "Gəldi": 3462,
  "Hadi!": 3463,
  "Kaş": 3464,
  "Ki": 3465,
  "Küç": 3466,
  "Lalə": 3467,
  "Ləb": 3468,
  "Nəf": 3469,
  "Orada": 3470,
  "Sevgil": 3471,
  "Sevgilinin": 3472,
  "Sur": 3473,
  "Söy": 3474,
  "Sözün": 3475,
  "Tap": 3476,
  "Tən": 3477,
  "Vüsalın": 3478,
  "Vəslin": 3479,
  "Xaqaniyə": 3480,
  "Yaxşı": 3481,
  "Yaz": 3482,
  "Yox": 3483,
  "Yəq": 3484,
  "Zül": 3485,
  "Zülfü": 3486,
  "aciz": 3487,
  "adi": 3488,
  "ah,": 3489,
  "aha": 3490,
  "alç": 3491,
  "alıdır.": 3492,
  "alından": 3493,
  "aman,": 3494,
  "ancaq,": 3495,
  "anlar,": 3496,
  "anım.": 3497,
  "anında": 3498,
  "aqda": 3499,
  "aqlar": 3500,
  "arsa,": 3501,
  "arsan,": 3502,
  "asıl": 3503,
  "at.": 3504,
  "atdı,": 3505,
  "atdı.": 3506,
  "açan": 3507,
  "açıldı,": 3508,
  "ağlayır": 3509,
  "ağlı": 3510,
  "bab": 3511,
  "bağrı": 3512,
  "bildi": 3513,
  "budağ": 3514,
  "bəsləyər.": 3515,
  "cahanın": 3516,
  "camaat": 3517,
  "canı,": 3518,
  "canına": 3519,
  "cin": 3520,
  "cənnəti": 3521,
  "deyib": 3522,
  "deyiləm.": 3523,
  "deyirlər,": 3524,
  "dikcə": 3525,
  "dilbərə": 3526,
  "dildar": 3527,
  "dilə!": 3528,
  "diq": 3529,
  "doldu,": 3530,
  "doludur.": 3531,
  "don": 3532,
  "doqquz": 3533,
  "düçar": 3534,
  "düşmüşəm.": 3535,
  "dılar": 3536,
  "dıq": 3537,
  "dıqca": 3538,
  "dədir.": 3539,
  "dəh": 3540,
  "dəndir,": 3541,
  "dəndir.": 3542,
  "dərdli": 3543,
  "edərd": 3544,
  "etmiş,": 3545,
  "etməs": 3546,
  "eşqində": 3547,
  "eşqinə": 3548,
  "fır": 3549,
  "fəl": 3550,
  "fərəh": 3551,
  "fət": 3552,
  "gedib": 3553,
  "gedər,": 3554,
  "geyin": 3555,
  "gird": 3556,
  "gizləd": 3557,
  "gördük": 3558,
  "göyün": 3559,
  "gözləri": 3560,
  "gəl.": 3561,
  "gəlin!": 3562,
  "gələr": 3563,
  "gərəkdir.": 3564,
  "halal": 3565,
  "hil": 3566,
  "hərək": 3567,
  "həş": 3568,
  "il-": 3569,
  "imizi": 3570,
  "in!": 3571,
  "indir.": 3572,
  "inin,": 3573,
  "insan,": 3574,
  "istəyir": 3575,
  "iyəm.": 3576,
  "işıqlan": 3577,
  "işıqlandır": 3578,
  "kaman": 3579,
  "kimidir.": 3580,
  "kol": 3581,
  "köhnə": 3582,
  "köp": 3583,
  "köç": 3584,
  "kəf": 3585,
  "layıb": 3586,
  "lib": 3587,
  "libas": 3588,
  "linin": 3589,
  "liyinə": 3590,
  "lövhəs": 3591,
  "lığın": 3592,
  "lər:": 3593,
  "lərimi": 3594,
  "mam": 3595,
  "mana": 3596,
  "mayan": 3597,
  "millət": 3598,
  "minnət": 3599,
  "misən": 3600,
  "müdrik": 3601,
  "mülkündə": 3602,
  "müştaq": 3603,
  "mışdı": 3604,
  "mə.": 3605,
  "məhrəm": 3606,
  "məzhəb": 3607,
  "nəşə": 3608,
  "odlu": 3609,
  "ol.": 3610,
  "ola,": 3611,
  "oldun": 3612,
  "olduq": 3613,
  "olması": 3614,
  "olmasın.": 3615,
  "olsan": 3616,
  "onların": 3617,
  "oxşay": 3618,
  "oyun": 3619,
  "oğul": 3620,
  "pad": 3621,
  "peyk": 3622,
  "pəri": 3623,
  "qalm": 3624,
  "qalmadı,": 3625,
  "qarğa": 3626,
  "qaşının": 3627,
  "qin": 3628,
  "qoxulu": 3629,
  "qoydu,": 3630,
  "quc": 3631,
  "qurbanın": 3632,
  "qurtul": 3633,
  "qürur": 3634,
  "qıy": 3635,
  "qəmindən": 3636,
  "qəmini": 3637,
  "rədd": 3638,
  "rəq": 3639,
  "sanma,": 3640,
  "sap": 3641,
  "sevdas": 3642,
  "siy": 3643,
  "sol": 3644,
  "sun,": 3645,
  "sön": 3646,
  "söylə,": 3647,
  "sələr": 3648,
  "sərf": 3649,
  "tamah": 3650,
  "tapşır": 3651,
  "tim": 3652,
  "tub": 3653,
  "tuş": 3654,
  "töhfə": 3655,
  "tökən": 3656,
  "təhlük": 3657,
  "təqdir": 3658,
  "tərz": 3659,
  "təv": 3660,
  "ulduzlar": 3661,
  "uma": 3662,
  "ur.": 3663,
  "usan": 3664,
  "vücudun": 3665,
  "vəh": 3666,
  "vəsfini": 3667,
  "xalı": 3668,
  "xatir": 3669,
  "xeyr": 3670,
  "xilas": 3671,
  "yan,": 3672,
  "yanar,": 3673,
  "yarad": 3674,
  "yarım,": 3675,
  "yas": 3676,
  "yav": 3677,
  "yek": 3678,
  "yeli,": 3679,
  "yerinə": 3680,
  "yetər,": 3681,
  "yor": 3682,
  "yəni": 3683,
  "zin": 3684,
  "zəh": 3685,
  "zərr": 3686,
  "zəv": 3687,
  "Öm": 3688,
  "Özü": 3689,
  "Üzünə": 3690,
  "çatmaz.": 3691,
  "çeşməs": 3692,
  "çıxar.": 3693,
  "çəkin!": 3694,
  "çəkmək": 3695,
  "çəkər.": 3696,
  "önündə": 3697,
  "övlad": 3698,
  "üzlü,": 3699,
  "İskəndər": 3700,
  "ıcı": 3701,
  "ımdır,": 3702,
  "ığını": 3703,
  "şeyi": 3704,
  "şəm": 3705,
  "Əhməd": 3706,
  "ələr.": 3707,
  "ələrə": 3708,
  "əng,": 3709,
  "ərsə,": 3710,
  "əskik": 3711,
  "ətsiz": 3712,
  "əydi": 3713,
  "əydi,": 3714,
  "19": 3715,
  "Allahdan": 3716,
  "Aləmdə": 3717,
  "Axır": 3718,
  "Ayrılığ": 3719,
  "Ayrılığın": 3720,
  "Bağdad": 3721,
  "Başı": 3722,
  "Boy": 3723,
  "Boyun": 3724,
  "Cahanda": 3725,
  "Dilbərin": 3726,
  "Dur": 3727,
  "Dön": 3728,
  "Eşqə": 3729,
  "Fik": 3730,
  "Füzulini": 3731,
  "Fəl": 3732,
  "Fəzil": 3733,
  "Gəz": 3734,
  "Hüm": 3735,
  "Həmin": 3736,
  "Kəd": 3737,
  "Loğ": 3738,
  "Möcüz": 3739,
  "Məh": 3740,
  "Mələk": 3741,
  "Nərgiz": 3742,
  "Odur": 3743,
  "Or": 3744,
  "Ov": 3745,
  "Pərişan": 3746,
  "Pərvanə": 3747,
  "Qəb": 3748,
  "Qəf": 3749,
  "Rəbb": 3750,
  "Rəng": 3751,
  "Rəsul": 3752,
  "Seyyida,": 3753,
  "Söylə": 3754,
  "Səd": 3755,
  "Sədəf": 3756,
  "Tal": 3757,
  "Tez": 3758,
  "Tür": 3759,
  "Tə": 3760,
  "Təq": 3761,
  "Vüsal": 3762,
  "Zahid": 3763,
  "acaq,": 3764,
  "acaq.": 3765,
  "adlan": 3766,
  "adına": 3767,
  "adə": 3768,
  "ahın": 3769,
  "ahət": 3770,
  "aların": 3771,
  "aman!": 3772,
  "andan,": 3773,
  "anından": 3774,
  "arsan": 3775,
  "arım,": 3776,
  "axir": 3777,
  "ayağına": 3778,
  "ayağını": 3779,
  "ayıb": 3780,
  "ayə": 3781,
  "azğın": 3782,
  "ağlayırsan?": 3783,
  "ağlın": 3784,
  "ağına": 3785,
  "aşiqi": 3786,
  "bazar": 3787,
  "bağlamış": 3788,
  "bağış": 3789,
  "başımı": 3790,
  "beh": 3791,
  "beləcə": 3792,
  "big": 3793,
  "bilirəm": 3794,
  "bir,": 3795,
  "bir-birinə": 3796,
  "birisi": 3797,
  "buyur": 3798,
  "bükül": 3799,
  "bəbəyi": 3800,
  "bədənim": 3801,
  "bənzəy": 3802,
  "bərab": 3803,
  "cöv": 3804,
  "cümlə": 3805,
  "cər": 3806,
  "dadır": 3807,
  "dan-": 3808,
  "deyin,": 3809,
  "deş": 3810,
  "dib": 3811,
  "diləy": 3812,
  "diril": 3813,
  "dodağı": 3814,
  "dostluq": 3815,
  "dostun": 3816,
  "duq": 3817,
  "dövrü": 3818,
  "dünən": 3819,
  "düşüb,": 3820,
  "dıq,": 3821,
  "dır?": 3822,
  "dən-": 3823,
  "dənizi": 3824,
  "dənizinin": 3825,
  "dərdin": 3826,
  "dərdinin": 3827,
  "dərv": 3828,
  "dəyməz.": 3829,
  "endir": 3830,
  "etmişdir.": 3831,
  "etsəm,": 3832,
  "etsən": 3833,
  "evində": 3834,
  "eyi-": 3835,
  "fi": 3836,
  "fit": 3837,
  "gedib,": 3838,
  "gedən": 3839,
  "görsə": 3840,
  "gözlərim": 3841,
  "gözündən": 3842,
  "gülüm,": 3843,
  "güman": 3844,
  "günəşi": 3845,
  "gələr,": 3846,
  "gərçi": 3847,
  "gətir,": 3848,
  "gəzər,": 3849,
  "hadis": 3850,
  "hakim": 3851,
  "harad": 3852,
  "haradadır?": 3853,
  "heyif": 3854,
  "hidayət": 3855,
  "hör": 3856,
  "həddən": 3857,
  "həll": 3858,
  "həmişə,": 3859,
  "həv": 3860,
  "ibdir.": 3861,
  "idim": 3862,
  "ik.": 3863,
  "ilmiş": 3864,
  "iltif": 3865,
  "ilən": 3866,
  "ilərə": 3867,
  "imdən,": 3868,
  "incim": 3869,
  "iqr": 3870,
  "iqrar": 3871,
  "irəm.": 3872,
  "istə,": 3873,
  "istər.": 3874,
  "iyyətini": 3875,
  "iyəm": 3876,
  "içər": 3877,
  "işini": 3878,
  "işv": 3879,
  "keçir": 3880,
  "keçmişəm,": 3881,
  "kö": 3882,
  "könlümə,": 3883,
  "kəsdi,": 3884,
  "kəş": 3885,
  "lazım": 3886,
  "likdə": 3887,
  "lıqda": 3888,
  "lərində": 3889,
  "lərini,": 3890,
  "ləşdir": 3891,
  "maram": 3892,
  "mayıb": 3893,
  "meh": 3894,
  "mirvar": 3895,
  "mişdir,": 3896,
  "murdar": 3897,
  "mus": 3898,
  "mür": 3899,
  "müs": 3900,
  "müşkü": 3901,
  "mışam": 3902,
  "məlum": 3903,
  "məndədir.": 3904,
  "məsin,": 3905,
  "məyə,": 3906,
  "məzəmmət": 3907,
  "nec": 3908,
  "niyyət": 3909,
  "nər": 3910,
  "nəsih": 3911,
  "odlara": 3912,
  "odundan": 3913,
  "ola.": 3914,
  "olaydı!": 3915,
  "oldun,": 3916,
  "olsun!": 3917,
  "olubdur,": 3918,
  "onundur.": 3919,
  "oğru": 3920,
  "pərdə": 3921,
  "qalmadı.": 3922,
  "qara,": 3923,
  "qi": 3924,
  "qor": 3925,
  "qoş": 3926,
  "qoşun": 3927,
  "quz": 3928,
  "qədəm": 3929,
  "qəlbimin": 3930,
  "qən": 3931,
  "rah": 3932,
  "riy": 3933,
  "riyakar": 3934,
  "riz": 3935,
  "rəf": 3936,
  "salam": 3937,
  "salma,": 3938,
  "saqqal": 3939,
  "sav": 3940,
  "sevdası": 3941,
  "sirlər": 3942,
  "suyun": 3943,
  "söylədi:": 3944,
  "süm": 3945,
  "sün,": 3946,
  "sürmə": 3947,
  "səbəbi": 3948,
  "səfər": 3949,
  "səndən,": 3950,
  "səxav": 3951,
  "tapmışam": 3952,
  "tiğ": 3953,
  "tul": 3954,
  "tutmaq": 3955,
  "tökülür.": 3956,
  "töv": 3957,
  "tərəz": 3958,
  "təəccüb": 3959,
  "um.": 3960,
  "uq,": 3961,
  "ustad": 3962,
  "uğr": 3963,
  "verib": 3964,
  "verməz.": 3965,
  "vüsalına": 3966,
  "vüsalından": 3967,
  "xaç": 3968,
  "xum": 3969,
  "xur": 3970,
  "xəstəl": 3971,
  "yandırdı": 3972,
  "yaradan": 3973,
  "yed": 3974,
  "yoluna": 3975,
  "yəq": 3976,
  "zadə": 3977,
  "zah": 3978,
  "zamanda": 3979,
  "zülfünə,": 3980,
  "zünnar": 3981,
  "zək": 3982,
  "zənc": 3983,
  "zəncirinə": 3984,
  "Çünki,": 3985,
  "çi,": 3986,
  "çir": 3987,
  "çob": 3988,
  "çök": 3989,
  "çəm": 3990,
  "çən": 3991,
  "çət": 3992,
  "övq": 3993,
  "övr": 3994,
  "ürəyi": 3995,
  "üzün,": 3996,
  "üzünü,": 3997,
  "üzünə,": 3998,
  "üçündür.": 3999,
  "İb": 4000,
  "ıc": 4001,
  "ıdan": 4002,
  "ıların": 4003,
  "ıma,": 4004,
  "ımdır": 4005,
  "ınc": 4006,
  "ıq.": 4007,
  "ırdı": 4008,
  "Şe": 4009,
  "Şövq": 4010,
  "şadlıq": 4011,
  "şirin,": 4012,
  "Əd": 4013,
  "Əhli-": 4014,
  "Əm": 4015,
  "əbəs": 4016,
  "əcəl": 4017,
  "əhli,": 4018,
  "əhlini": 4019,
  "əkdir": 4020,
  "əki": 4021,
  "əlik": 4022,
  "əm?": 4023,
  "əmdə": 4024,
  "əmdən": 4025,
  "ərdi": 4026,
  "ərkən": 4027,
  "əsiri": 4028,
  "əta": 4029,
  "ətrafında": 4030,
  "əyy": 4031,
  "əzm": 4032,
  "-n": 4033,
  "Allaha,": 4034,
  "Alt": 4035,
  "Ancaq": 4036,
  "Arz": 4037,
  "As": 4038,
  "Az": 4039,
  "Azərbaycan": 4040,
  "Aç": 4041,
  "Bağr": 4042,
  "Başına": 4043,
  "Bey": 4044,
  "Bircə": 4045,
  "Bunu": 4046,
  "Böyük": 4047,
  "Bütünlüklə": 4048,
  "Bər": 4049,
  "Cahanı": 4050,
  "Cəh": 4051,
  "Cəmş": 4052,
  "Dedilər": 4053,
  "Diş": 4054,
  "Dünyaya": 4055,
  "Dəl": 4056,
  "Dəy": 4057,
  "Eşqində": 4058,
  "Fir": 4059,
  "Fit": 4060,
  "Füzulinin": 4061,
  "Gülş": 4062,
  "Gümüş": 4063,
  "Gündə": 4064,
  "Hind": 4065,
  "Hur": 4066,
  "Hüseyn": 4067,
  "Hüsn": 4068,
  "Həz": 4069,
  "I": 4070,
  "Külək": 4071,
  "Kənd": 4072,
  "Lakin,": 4073,
  "Lal": 4074,
  "Loğman": 4075,
  "Mirza!": 4076,
  "Mus": 4077,
  "Möh": 4078,
  "Məm": 4079,
  "Məs": 4080,
  "Məz": 4081,
  "Pad": 4082,
  "Qaşının": 4083,
  "Qeyr": 4084,
  "Qorxuram": 4085,
  "Qönçə": 4086,
  "Qır": 4087,
  "Qədr": 4088,
  "Qəmz": 4089,
  "Rəhm": 4090,
  "Sağ": 4091,
  "Tac": 4092,
  "Tanr": 4093,
  "Tök": 4094,
  "Uz": 4095,
  "Vət": 4096,
  "Xalqa": 4097,
  "Yaxş": 4098,
  "Zahid,": 4099,
  "Zənn": 4100,
  "Zərr": 4101,
  "a\"": 4102,
  "abi-": 4103,
  "ada,": 4104,
  "adam,": 4105,
  "adım": 4106,
  "akirə": 4107,
  "akı": 4108,
  "aları": 4109,
  "alır": 4110,
  "alə": 4111,
  "an?": 4112,
  "anam,": 4113,
  "ar?": 4114,
  "arasında.": 4115,
  "arlar": 4116,
  "arsa": 4117,
  "artar.": 4118,
  "arv": 4119,
  "arxas": 4120,
  "arzular.": 4121,
  "arzulay": 4122,
  "arə": 4123,
  "asın": 4124,
  "atdı": 4125,
  "axıt": 4126,
  "ay-": 4127,
  "aydı": 4128,
  "ayıq": 4129,
  "ayəsi": 4130,
  "açdı": 4131,
  "ağzına": 4132,
  "ağzını": 4133,
  "aət": 4134,
  "bax.": 4135,
  "baxma": 4136,
  "bağb": 4137,
  "bağda": 4138,
  "bağrını": 4139,
  "bağına": 4140,
  "başdan": 4141,
  "başdan-ayağa": 4142,
  "başç": 4143,
  "başı,": 4144,
  "başım": 4145,
  "başımdan": 4146,
  "başına,": 4147,
  "betər": 4148,
  "bildi,": 4149,
  "bilik": 4150,
  "bilməyən": 4151,
  "bilər,": 4152,
  "bilər.": 4153,
  "birdən": 4154,
  "buy": 4155,
  "bülbül,": 4156,
  "bülbülün": 4157,
  "bəli,": 4158,
  "bəsləy": 4159,
  "bəxtim": 4160,
  "bəyən": 4161,
  "camalın": 4162,
  "camın": 4163,
  "canana": 4164,
  "canda": 4165,
  "canım.": 4166,
  "cürə": 4167,
  "cəfası": 4168,
  "cəll": 4169,
  "dandır,": 4170,
  "deyib,": 4171,
  "deyiləm": 4172,
  "deyirlər.": 4173,
  "deyən,": 4174,
  "deyərəm.": 4175,
  "did": 4176,
  "dil,": 4177,
  "dilini": 4178,
  "dilən": 4179,
  "dodaqlarından": 4180,
  "durnalar!": 4181,
  "dönmərəm.": 4182,
  "dönüb": 4183,
  "dövlətli": 4184,
  "dü-": 4185,
  "düm,": 4186,
  "dünya,": 4187,
  "dünyad": 4188,
  "dünyan": 4189,
  "dürdan": 4190,
  "düzəlt": 4191,
  "düşsə,": 4192,
  "dıqda": 4193,
  "dığ": 4194,
  "dəndir": 4195,
  "dərdim,": 4196,
  "dərya": 4197,
  "edirəm": 4198,
  "edər?": 4199,
  "ehtir": 4200,
  "etdilər,": 4201,
  "etdin": 4202,
  "etdiy": 4203,
  "eybi": 4204,
  "eylər": 4205,
  "eşş": 4206,
  "far": 4207,
  "fürsət": 4208,
  "fəd": 4209,
  "fəraq": 4210,
  "fəras": 4211,
  "fəsl": 4212,
  "gedəcək": 4213,
  "giz": 4214,
  "guş": 4215,
  "gördüyün": 4216,
  "görmədim,": 4217,
  "görməmişəm.": 4218,
  "görsə,": 4219,
  "görüncə,": 4220,
  "gözə": 4221,
  "gözəlin": 4222,
  "güllər": 4223,
  "gülüş": 4224,
  "günəşə": 4225,
  "güzgü": 4226,
  "gəlməsin.": 4227,
  "gəlsə": 4228,
  "gələydi,": 4229,
  "gətir!": 4230,
  "gətirdi,": 4231,
  "gətirir.": 4232,
  "harada": 4233,
  "hüsnünə": 4234,
  "hüzur": 4235,
  "ici": 4236,
  "idi;": 4237,
  "imə,": 4238,
  "in?": 4239,
  "indən.": 4240,
  "ir?": 4241,
  "istərəm.": 4242,
  "istəyirsənsə,": 4243,
  "itab": 4244,
  "iyyətə": 4245,
  "içim": 4246,
  "keyfiyyəti": 4247,
  "keçdi.": 4248,
  "keş": 4249,
  "kilsədən": 4250,
  "kirpiyin": 4251,
  "kölgəsi": 4252,
  "könl": 4253,
  "könlümü,": 4254,
  "könüldən": 4255,
  "küləyi": 4256,
  "küp": 4257,
  "küçənin": 4258,
  "kəslər": 4259,
  "ladı.": 4260,
  "lanın": 4261,
  "laqeyd": 4262,
  "larım": 4263,
  "liyin": 4264,
  "lüm": 4265,
  "lıq,": 4266,
  "lıy": 4267,
  "ləh": 4268,
  "lək": 4269,
  "ləq": 4270,
  "ləri.": 4271,
  "lərəm,": 4272,
  "ləzzət": 4273,
  "ma!": 4274,
  "macər": 4275,
  "maqda": 4276,
  "maqdan": 4277,
  "mağa,": 4278,
  "mehriban": 4279,
  "mer": 4280,
  "meyxana": 4281,
  "miskin": 4282,
  "mişdir.": 4283,
  "mü,": 4284,
  "müd": 4285,
  "müz": 4286,
  "mışdı,": 4287,
  "mədi,": 4288,
  "məkdə": 4289,
  "məqsədi": 4290,
  "məsi,": 4291,
  "məsin.": 4292,
  "məsə,": 4293,
  "naqis": 4294,
  "nə,": 4295,
  "nəcab": 4296,
  "nəy": 4297,
  "nəğmə": 4298,
  "od,": 4299,
  "olandan": 4300,
  "olay": 4301,
  "olmuşdur": 4302,
  "ona,": 4303,
  "ortaya": 4304,
  "peykan": 4305,
  "pr": 4306,
  "qabağ": 4307,
  "qad": 4308,
  "qalmadı": 4309,
  "qanlar": 4310,
  "qapısını": 4311,
  "qaral": 4312,
  "qaranlığ": 4313,
  "qaytar": 4314,
  "qazi": 4315,
  "qeyb": 4316,
  "qiymətli": 4317,
  "qovuşmaq": 4318,
  "qoymaz": 4319,
  "qəddimi": 4320,
  "qədər,": 4321,
  "qəlbimə": 4322,
  "qəlbin": 4323,
  "qəmzə": 4324,
  "qətr": 4325,
  "razıl": 4326,
  "rinə": 4327,
  "rütb": 4328,
  "rüxsar": 4329,
  "rəhbər": 4330,
  "rəvan": 4331,
  "sa.": 4332,
  "salar,": 4333,
  "sağal": 4334,
  "sevgili,": 4335,
  "sonsuz": 4336,
  "sonu": 4337,
  "sus,": 4338,
  "susadı.": 4339,
  "söyləm": 4340,
  "sözü,": 4341,
  "sözünə": 4342,
  "sümük": 4343,
  "sığın": 4344,
  "səcd": 4345,
  "səmim": 4346,
  "sənəm": 4347,
  "səpən": 4348,
  "tapdım,": 4349,
  "tapıl": 4350,
  "teli": 4351,
  "tin": 4352,
  "tiy": 4353,
  "torpaq,": 4354,
  "torpağını": 4355,
  "tox": 4356,
  "tozu": 4357,
  "tüst": 4358,
  "təbi": 4359,
  "u-": 4360,
  "udur": 4361,
  "umdan": 4362,
  "uğur": 4363,
  "vas": 4364,
  "verdim,": 4365,
  "vəhş": 4366,
  "vəslinin": 4367,
  "xalqın": 4368,
  "xitab": 4369,
  "xoşdur": 4370,
  "xırman": 4371,
  "xəbəri": 4372,
  "xəcalət": 4373,
  "xənd": 4374,
  "xəndan": 4375,
  "xəta": 4376,
  "xəttin": 4377,
  "xəzinənin": 4378,
  "yanaş": 4379,
  "yarpağı": 4380,
  "yaxasını": 4381,
  "yaxınlaş": 4382,
  "yaşım,": 4383,
  "yaşımı": 4384,
  "yaşımın": 4385,
  "yolla": 4386,
  "yuv": 4387,
  "yuxus": 4388,
  "zal": 4389,
  "zən": 4390,
  "zərrəcə": 4391,
  "Çalış": 4392,
  "Ümidim": 4393,
  "Üç": 4394,
  "çatmaq": 4395,
  "çatmaz": 4396,
  "çeşməsi": 4397,
  "çil": 4398,
  "çoban": 4399,
  "çox,": 4400,
  "çux": 4401,
  "çəkdim,": 4402,
  "çəkin,": 4403,
  "çər": 4404,
  "ötrü": 4405,
  "öyün": 4406,
  "ür.": 4407,
  "ürək,": 4408,
  "üyünü": 4409,
  "üzər": 4410,
  "İd": 4411,
  "İsanın": 4412,
  "İzz": 4413,
  "ılar": 4414,
  "ılar,": 4415,
  "ımdan,": 4416,
  "ındadır,": 4417,
  "ıqda": 4418,
  "ıqlı": 4419,
  "ırt": 4420,
  "ığın": 4421,
  "Şirinin": 4422,
  "şal": 4423,
  "şərab,": 4424,
  "Əbədi": 4425,
  "Əkbər": 4426,
  "Əlinin": 4427,
  "Əzr": 4428,
  "əcək.": 4429,
  "əl,": 4430,
  "ən?": 4431,
  "əna": 4432,
  "ənb": 4433,
  "əri,": 4434,
  "ərlər.": 4435,
  "əsin,": 4436,
  "əstə": 4437,
  "ətrini": 4438,
  "əyim": 4439,
  "əyindən": 4440,
  "əz,": 4441,
  "əzəmətli": 4442,
  "”.": 4443,
  "6.": 4444,
  "AR": 4445,
  "Acı": 4446,
  "Allahı": 4447,
  "Ağlam": 4448,
  "Baxmayaraq": 4449,
  "Başa": 4450,
  "Bel": 4451,
  "Bur": 4452,
  "Bəz": 4453,
  "Cananın": 4454,
  "Canımın": 4455,
  "Canını": 4456,
  "Ceyh": 4457,
  "Cümə": 4458,
  "Cənn": 4459,
  "Da": 4460,
  "Demə": 4461,
  "Durub": 4462,
  "Dərdə": 4463,
  "Dəv": 4464,
  "Ehtiyat": 4465,
  "Ev": 4466,
  "Für": 4467,
  "Füzulidən": 4468,
  "Fərhadın": 4469,
  "Gedib": 4470,
  "Gözüm,": 4471,
  "Gözünü": 4472,
  "Gözəlliyinin": 4473,
  "Güllər": 4474,
  "Güman": 4475,
  "Gərək": 4476,
  "Heyr": 4477,
  "Hök": 4478,
  "Hör": 4479,
  "Hüseynin": 4480,
  "Hək": 4481,
  "Həqiq": 4482,
  "Həş": 4483,
  "Kaf": 4484,
  "Kamal": 4485,
  "Keçən": 4486,
  "Kimdir": 4487,
  "Könl": 4488,
  "Könlümü": 4489,
  "Küçənin": 4490,
  "Mehr": 4491,
  "Meyxan": 4492,
  "Müs": 4493,
  "Məhəbbət": 4494,
  "Nəq": 4495,
  "Nəz": 4496,
  "Parlaq": 4497,
  "Pis": 4498,
  "Qamət": 4499,
  "Qaç": 4500,
  "Qovuş": 4501,
  "Qür": 4502,
  "Rüst": 4503,
  "Rəbb!": 4504,
  "San": 4505,
  "Sanma": 4506,
  "Son": 4507,
  "Suy": 4508,
  "Sözünü": 4509,
  "Süley": 4510,
  "Süleymanın": 4511,
  "Sərxoş": 4512,
  "Tik": 4513,
  "Uzun": 4514,
  "Uş": 4515,
  "Vəf": 4516,
  "Vəfa": 4517,
  "Vəh": 4518,
  "Vəsl": 4519,
  "Xey": 4520,
  "Xo": 4521,
  "Xəst": 4522,
  "Xətaiyəm,": 4523,
  "Yen": 4524,
  "Yez": 4525,
  "Yolunda": 4526,
  "Yoxdur": 4527,
  "Yusifin": 4528,
  "Zah": 4529,
  "Zahidin": 4530,
  "Zal": 4531,
  "Zamanın": 4532,
  "Zöh": 4533,
  "Zəmanə": 4534,
  "a:": 4535,
  "ad,": 4536,
  "adar": 4537,
  "adüf": 4538,
  "adətini": 4539,
  "ahım,": 4540,
  "alovlan": 4541,
  "aləmin": 4542,
  "alət": 4543,
  "aməti": 4544,
  "anlam": 4545,
  "anlay": 4546,
  "anlı": 4547,
  "anıb": 4548,
  "anına": 4549,
  "aqla": 4550,
  "aram.": 4551,
  "arkən,": 4552,
  "arsan.": 4553,
  "arzulayır.": 4554,
  "asına.": 4555,
  "atının": 4556,
  "avi": 4557,
  "axtar,": 4558,
  "axır.": 4559,
  "ayağı": 4560,
  "ayağının": 4561,
  "ayı,": 4562,
  "azə": 4563,
  "açar.": 4564,
  "ağacdan": 4565,
  "ağar": 4566,
  "ağlar,": 4567,
  "ağzının": 4568,
  "ağı.": 4569,
  "ağım,": 4570,
  "aşin": 4571,
  "bağa": 4572,
  "beyn": 4573,
  "bilikli": 4574,
  "bilir.": 4575,
  "bilmir": 4576,
  "bilmərəm": 4577,
  "biç": 4578,
  "biçarə": 4579,
  "boylu": 4580,
  "bulan": 4581,
  "bus": 4582,
  "bülbülə": 4583,
  "bürüy": 4584,
  "bütxan": 4585,
  "bədənli": 4586,
  "bənzət": 4587,
  "bənövşə": 4588,
  "bəsdir.": 4589,
  "bəsləm": 4590,
  "bəş": 4591,
  "cad": 4592,
  "cahanda,": 4593,
  "canlar": 4594,
  "ciy": 4595,
  "cövrü": 4596,
  "cümə": 4597,
  "d,": 4598,
  "dadlı": 4599,
  "daim,": 4600,
  "dair": 4601,
  "dandır": 4602,
  "deyiləm,": 4603,
  "deyir:": 4604,
  "deyirəm,": 4605,
  "dilim": 4606,
  "dindən": 4607,
  "dir:": 4608,
  "diri": 4609,
  "dodaqlarını": 4610,
  "dostu": 4611,
  "durub,": 4612,
  "duğu": 4613,
  "döndü,": 4614,
  "dövrüdür.": 4615,
  "dövrün": 4616,
  "döyüş": 4617,
  "düşmənin": 4618,
  "düşsün,": 4619,
  "düşünc": 4620,
  "dın.": 4621,
  "dəb": 4622,
  "dəftər": 4623,
  "dən-günə": 4624,
  "dəva": 4625,
  "dəvət": 4626,
  "dəyər,": 4627,
  "edərək": 4628,
  "etdi?": 4629,
  "etdiyim": 4630,
  "etmişdi,": 4631,
  "etmişdir,": 4632,
  "etməsin,": 4633,
  "etməyi": 4634,
  "eyb": 4635,
  "eylər,": 4636,
  "eşqdən": 4637,
  "eşqlə": 4638,
  "fay": 4639,
  "fayda,": 4640,
  "feyzi": 4641,
  "fitnə": 4642,
  "fəhm": 4643,
  "fəsad": 4644,
  "gecələr": 4645,
  "gecəsi": 4646,
  "geniş": 4647,
  "geyinsin": 4648,
  "giriftar": 4649,
  "guya": 4650,
  "görsən": 4651,
  "görüb.": 4652,
  "görüm,": 4653,
  "göründü,": 4654,
  "görəy": 4655,
  "göylərin": 4656,
  "gözlərini": 4657,
  "gözlərinin": 4658,
  "gözümdə": 4659,
  "gözündə": 4660,
  "gözəllik,": 4661,
  "gözəlliy": 4662,
  "gözəlliyinin": 4663,
  "gücü": 4664,
  "gül-": 4665,
  "gülüz": 4666,
  "gülşəndə": 4667,
  "gəldim,": 4668,
  "gəlsin": 4669,
  "gəlsə,": 4670,
  "gələ!": 4671,
  "gələndə": 4672,
  "hac": 4673,
  "han": 4674,
  "hanı": 4675,
  "hazırl": 4676,
  "himmət": 4677,
  "hiss": 4678,
  "hüsnünün": 4679,
  "hədsiz": 4680,
  "hədəf": 4681,
  "hək": 4682,
  "həkim": 4683,
  "hələ.": 4684,
  "hən": 4685,
  "həsrətindən": 4686,
  "ibi": 4687,
  "ifadə": 4688,
  "ilahi,": 4689,
  "illik": 4690,
  "illər": 4691,
  "imiz,": 4692,
  "incə,": 4693,
  "irfan": 4694,
  "irəli": 4695,
  "isin": 4696,
  "istan": 4697,
  "istəd": 4698,
  "istərsən,": 4699,
  "istəsən,": 4700,
  "iyyətin": 4701,
  "iztir": 4702,
  "içi": 4703,
  "içik": 4704,
  "içmək": 4705,
  "kabab": 4706,
  "keçsinmi?": 4707,
  "keçən": 4708,
  "kifayətdir": 4709,
  "könlün": 4710,
  "kəd": 4711,
  "kənarında": 4712,
  "kəsmə,": 4713,
  "laşıb": 4714,
  "lidir.": 4715,
  "lilərin": 4716,
  "lim,": 4717,
  "lu,": 4718,
  "lı.": 4719,
  "lığa": 4720,
  "ləhzə": 4721,
  "lərin,": 4722,
  "m.": 4723,
  "madıq,": 4724,
  "mağını": 4725,
  "mehr": 4726,
  "mirəm,": 4727,
  "mişdir": 4728,
  "mübtəla": 4729,
  "müdd": 4730,
  "müshəf": 4731,
  "müəll": 4732,
  "mısan": 4733,
  "mış.": 4734,
  "mışdı.": 4735,
  "mışdır.": 4736,
  "məclisinin": 4737,
  "mədi.": 4738,
  "məklə": 4739,
  "mələk,": 4740,
  "məni.": 4741,
  "mənimlə": 4742,
  "məskəni": 4743,
  "namaz": 4744,
  "nazil": 4745,
  "neçün": 4746,
  "nicat": 4747,
  "nigarım,": 4748,
  "nis": 4749,
  "nun": 4750,
  "nöq": 4751,
  "nəfəsi": 4752,
  "nəsr": 4753,
  "oc": 4754,
  "olanda,": 4755,
  "olmas": 4756,
  "olmasa.": 4757,
  "olmasın": 4758,
  "olmur.": 4759,
  "olsam": 4760,
  "oxudu": 4761,
  "oxşar": 4762,
  "oz": 4763,
  "parçal": 4764,
  "pislik": 4765,
  "piyalə": 4766,
  "pən": 4767,
  "pərdəni": 4768,
  "pərdəsi": 4769,
  "qafil,": 4770,
  "qalmasın.": 4771,
  "qalmaz,": 4772,
  "qandır,": 4773,
  "qanla": 4774,
  "qaraçarqat": 4775,
  "qarışqa": 4776,
  "qaşlarının": 4777,
  "qiq": 4778,
  "qoruy": 4779,
  "qorxu": 4780,
  "qoy,": 4781,
  "qoymuş": 4782,
  "qoyub,": 4783,
  "qurban,": 4784,
  "qurş": 4785,
  "qürbət": 4786,
  "qıl,": 4787,
  "qılman": 4788,
  "qıs": 4789,
  "qızar": 4790,
  "qızdır": 4791,
  "qəh": 4792,
  "qəhr": 4793,
  "qəmlə": 4794,
  "qətl": 4795,
  "rüb": 4796,
  "rəmz": 4797,
  "sak": 4798,
  "sakit": 4799,
  "sal.": 4800,
  "salma": 4801,
  "san?": 4802,
  "saçın,": 4803,
  "seli": 4804,
  "sevd": 4805,
  "sevdiyim,": 4806,
  "sevər,": 4807,
  "sey": 4808,
  "sif": 4809,
  "sifətli": 4810,
  "sinə": 4811,
  "sirləri": 4812,
  "siç": 4813,
  "st": 4814,
  "sult": 4815,
  "söylə": 4816,
  "sözlərin": 4817,
  "süb": 4818,
  "süfrə": 4819,
  "sə.": 4820,
  "sədaq": 4821,
  "sədəfdir,": 4822,
  "səhraya": 4823,
  "sələr,": 4824,
  "sənsə,": 4825,
  "sərvər": 4826,
  "səs-": 4827,
  "taley": 4828,
  "tapa": 4829,
  "tapılmaz,": 4830,
  "toxun": 4831,
  "toy": 4832,
  "tutdu.": 4833,
  "tutul": 4834,
  "töh": 4835,
  "tüf": 4836,
  "tələ": 4837,
  "təqdim": 4838,
  "təqv": 4839,
  "təravətli": 4840,
  "təsiri": 4841,
  "ub.": 4842,
  "udə": 4843,
  "uh": 4844,
  "unca": 4845,
  "unut!": 4846,
  "usunu": 4847,
  "uyğun": 4848,
  "uzaqlaş": 4849,
  "van.": 4850,
  "vermərəm.": 4851,
  "viranə": 4852,
  "vurul": 4853,
  "vəhdət": 4854,
  "vəli,": 4855,
  "xoşdur,": 4856,
  "xəttini": 4857,
  "yandı": 4858,
  "yandı.": 4859,
  "yanından": 4860,
  "yar.": 4861,
  "yaral": 4862,
  "yarım": 4863,
  "yavaş-yavaş.": 4864,
  "yaşlar": 4865,
  "yaşını": 4866,
  "yerim": 4867,
  "yerindən": 4868,
  "yeyən": 4869,
  "yoldan": 4870,
  "yolun": 4871,
  "yu": 4872,
  "yuxuda": 4873,
  "yığıl": 4874,
  "yığış": 4875,
  "zar,": 4876,
  "zövqünü": 4877,
  "zəb": 4878,
  "zənəx": 4879,
  "Öldür": 4880,
  "Ür": 4881,
  "çatar?": 4882,
  "çaş": 4883,
  "çevr": 4884,
  "çıl": 4885,
  "çıxdı.": 4886,
  "çək.": 4887,
  "çəkmə": 4888,
  "öh": 4889,
  "ölürəm.": 4890,
  "ötrü,": 4891,
  "öyr": 4892,
  "öyrət": 4893,
  "özg": 4894,
  "özümü": 4895,
  "üc": 4896,
  "üdür.": 4897,
  "üh": 4898,
  "ümidini": 4899,
  "ümlə": 4900,
  "ünlə": 4901,
  "ünə,": 4902,
  "ürəkdən": 4903,
  "üylə": 4904,
  "üzr": 4905,
  "üzərində": 4906,
  "ğa": 4907,
  "İnan,": 4908,
  "İnc": 4909,
  "İsaya": 4910,
  "İsfah": 4911,
  "ıda": 4912,
  "ılan": 4913,
  "ılmış": 4914,
  "ıqdır,": 4915,
  "ıram.": 4916,
  "ırdı.": 4917,
  "ısı,": 4918,
  "ısına": 4919,
  "ısını": 4920,
  "ıx": 4921,
  "Şək": 4922,
  "Şəriət": 4923,
  "şahım,": 4924,
  "şama": 4925,
  "şamam": 4926,
  "şi": 4927,
  "şimş": 4928,
  "şiəl": 4929,
  "şölə": 4930,
  "şövqü": 4931,
  "şük": 4932,
  "şüş": 4933,
  "şəhla": 4934,
  "şəhərə": 4935,
  "şəkər,": 4936,
  "şərabın": 4937,
  "şəri": 4938,
  "Əbəd": 4939,
  "Əlbəttə,": 4940,
  "Əzəl": 4941,
  "əjdah": 4942,
  "əlac": 4943,
  "əlaq": 4944,
  "əlimdən": 4945,
  "əlvan": 4946,
  "əndi,": 4947,
  "əndəki": 4948,
  "əngə": 4949,
  "əriy": 4950,
  "ərli": 4951,
  "ərsən": 4952,
  "əsə": 4953,
  "əti,": 4954,
  "ətli,": 4955,
  "ətəyini": 4956,
  "əvv": 4957,
  "əyr": 4958,
  "əyəm": 4959,
  "\"Mən": 4960,
  "\"Quran": 4961,
  "5.": 4962,
  "7.": 4963,
  "AL": 4964,
  "Afərin": 4965,
  "Amma,": 4966,
  "Asiman": 4967,
  "Axir": 4968,
  "Ayrıl": 4969,
  "Açıl": 4970,
  "Ağl": 4971,
  "Ağzından": 4972,
  "Aşiqlərin": 4973,
  "Aşiqə": 4974,
  "Bar": 4975,
  "Bay": 4976,
  "Bağrımı": 4977,
  "Başını": 4978,
  "Behiş": 4979,
  "Biç": 4980,
  "Bo": 4981,
  "Bəh": 4982,
  "Bəhr": 4983,
  "Ciyər": 4984,
  "Cəbrayıl": 4985,
  "Cəl": 4986,
  "Cəmşidin": 4987,
  "Dav": 4988,
  "Dağ": 4989,
  "Demirəm": 4990,
  "Didar": 4991,
  "Dodaq": 4992,
  "Dodaqlarının": 4993,
  "Dərv": 4994,
  "Getdi": 4995,
  "Giz": 4996,
  "Göv": 4997,
  "Gözəllərin": 4998,
  "Hümmət": 4999,
  "Həb": 5000,
  "Həsən": 5001,
  "Həy": 5002,
  "Kam": 5003,
  "Kirp": 5004,
  "Kirpik": 5005,
  "Kiş": 5006,
  "Kölg": 5007,
  "Könül,": 5008,
  "Meyvə": 5009,
  "Mustafa": 5010,
  "Müx": 5011,
  "Məcnunun": 5012,
  "Mələklər": 5013,
  "Nəb": 5014,
  "Nəh": 5015,
  "Odlu": 5016,
  "Qarab": 5017,
  "Qay": 5018,
  "Qaçma": 5019,
  "Qaşlarının": 5020,
  "Qo": 5021,
  "Qocal": 5022,
  "Qoyma": 5023,
  "Qəbr": 5024,
  "Qədəh": 5025,
  "Qəflət": 5026,
  "Qəlbimin": 5027,
  "Qəzəb": 5028,
  "Rahat": 5029,
  "Raz": 5030,
  "Rəq": 5031,
  "Rəv": 5032,
  "Sadiq": 5033,
  "Saf": 5034,
  "Surətin": 5035,
  "Söylə,": 5036,
  "Sünbül": 5037,
  "Sənsiz": 5038,
  "Tam": 5039,
  "Torpaq": 5040,
  "Tuba": 5041,
  "Təkcə": 5042,
  "Vaqifəm,": 5043,
  "Vur": 5044,
  "Vəhdət": 5045,
  "Xəb": 5046,
  "Xəl": 5047,
  "Xətainin": 5048,
  "Xəyalın": 5049,
  "Yandır": 5050,
  "Yaş": 5051,
  "Yet": 5052,
  "Yoxsul": 5053,
  "Yux": 5054,
  "Zam": 5055,
  "Zaman": 5056,
  "Zəncir": 5057,
  "aba": 5058,
  "abını": 5059,
  "aca": 5060,
  "adək": 5061,
  "ah-nalə": 5062,
  "alardan": 5063,
  "aldı.": 5064,
  "almağa": 5065,
  "altına": 5066,
  "aləmdən": 5067,
  "anan": 5068,
  "aqqal": 5069,
  "arlar.": 5070,
  "armı?": 5071,
  "artıq,": 5072,
  "artır,": 5073,
  "arzulayar.": 5074,
  "arzusu": 5075,
  "as,": 5076,
  "at!": 5077,
  "atan": 5078,
  "atı,": 5079,
  "atıb": 5080,
  "avarə": 5081,
  "avaz": 5082,
  "axır,": 5083,
  "ayda": 5084,
  "ayrılığından": 5085,
  "aza": 5086,
  "açar": 5087,
  "açım": 5088,
  "ağlım": 5089,
  "ağrımaz.": 5090,
  "ağıllı,": 5091,
  "aşk": 5092,
  "bahar,": 5093,
  "baxıb": 5094,
  "bdən": 5095,
  "be": 5096,
  "bilmirəm,": 5097,
  "bilmiş": 5098,
  "binəv": 5099,
  "birini": 5100,
  "biyab": 5101,
  "biyə": 5102,
  "bizə,": 5103,
  "buc": 5104,
  "bük": 5105,
  "büryan": 5106,
  "bürü": 5107,
  "bədən,": 5108,
  "bədənim,": 5109,
  "bəsl": 5110,
  "bəxti": 5111,
  "bəyanı": 5112,
  "cahana": 5113,
  "camalının": 5114,
  "canan!": 5115,
  "ceyran": 5116,
  "cis": 5117,
  "cismi": 5118,
  "cüm": 5119,
  "cüt": 5120,
  "cı": 5121,
  "cəz": 5122,
  "dah": 5123,
  "dalğalan": 5124,
  "dana": 5125,
  "dandır.": 5126,
  "danın": 5127,
  "daq": 5128,
  "dar,": 5129,
  "davamlı": 5130,
  "dağın": 5131,
  "daşa": 5132,
  "desə,": 5133,
  "deyilsən,": 5134,
  "deyir,": 5135,
  "deyər,": 5136,
  "deyər:": 5137,
  "dildən": 5138,
  "doludur,": 5139,
  "doğul": 5140,
  "dular,": 5141,
  "dun,": 5142,
  "durmuş,": 5143,
  "dövləti": 5144,
  "dün,": 5145,
  "düzgün": 5146,
  "düşdüm": 5147,
  "dı?": 5148,
  "dıqda,": 5149,
  "dır!": 5150,
  "dığını": 5151,
  "dədir": 5152,
  "dəlil": 5153,
  "dənizə": 5154,
  "dəryasına": 5155,
  "dəryaya": 5156,
  "e,": 5157,
  "edəndə,": 5158,
  "edənin": 5159,
  "edənlər": 5160,
  "edərsən.": 5161,
  "ehtiyat": 5162,
  "elan": 5163,
  "etdik": 5164,
  "etdilər.": 5165,
  "etiq": 5166,
  "etmişəm.": 5167,
  "etməd": 5168,
  "etməyib,": 5169,
  "eyh": 5170,
  "eylədi": 5171,
  "eç": 5172,
  "fid": 5173,
  "fə": 5174,
  "fələkdən": 5175,
  "fəsli": 5176,
  "fəzli": 5177,
  "fəğanım": 5178,
  "gecə,": 5179,
  "geri": 5180,
  "getməz,": 5181,
  "gön": 5182,
  "gördü.": 5183,
  "gördüm.": 5184,
  "görüm": 5185,
  "görünüş": 5186,
  "görən,": 5187,
  "göstərib,": 5188,
  "gözl": 5189,
  "gözləm": 5190,
  "gözlərinə": 5191,
  "gözətç": 5192,
  "güclü": 5193,
  "gülün.": 5194,
  "günləri": 5195,
  "günə": 5196,
  "gəda": 5197,
  "gəlin,": 5198,
  "gəlmədi?": 5199,
  "gərdən": 5200,
  "gərəkdir": 5201,
  "gəzdir": 5202,
  "gəzən": 5203,
  "haldan": 5204,
  "halq": 5205,
  "him": 5206,
  "hökmdar,": 5207,
  "hüm": 5208,
  "hüsnünü": 5209,
  "həc": 5210,
  "həcv": 5211,
  "hədiyyə": 5212,
  "həkim!": 5213,
  "hətta": 5214,
  "həyasız": 5215,
  "ibad": 5216,
  "ibi,": 5217,
  "ikr": 5218,
  "ildə": 5219,
  "ildən": 5220,
  "ilər.": 5221,
  "imdəki": 5222,
  "imtahan": 5223,
  "inan!": 5224,
  "inan.": 5225,
  "incilər": 5226,
  "incisi": 5227,
  "iniz,": 5228,
  "ipək": 5229,
  "iqi": 5230,
  "iqin": 5231,
  "irs": 5232,
  "isbat": 5233,
  "isim,": 5234,
  "isindən": 5235,
  "isinin": 5236,
  "islam": 5237,
  "istərəm": 5238,
  "istərəm!": 5239,
  "izhar": 5240,
  "iç,": 5241,
  "içdi,": 5242,
  "içim,": 5243,
  "içər.": 5244,
  "iğ": 5245,
  "kab": 5246,
  "kat": 5247,
  "keçdi": 5248,
  "keşik": 5249,
  "kirpiy": 5250,
  "kitabını": 5251,
  "köv": 5252,
  "küncündə": 5253,
  "küçəsində": 5254,
  "kənara": 5255,
  "kəs.": 5256,
  "kəsmək": 5257,
  "ları.": 5258,
  "layar,": 5259,
  "linin,": 5260,
  "lütflə": 5261,
  "lıdır,": 5262,
  "lının": 5263,
  "lığım": 5264,
  "lənd": 5265,
  "ləs": 5266,
  "maq,": 5267,
  "ması,": 5268,
  "mdan": 5269,
  "min-min": 5270,
  "mişəm.": 5271,
  "möcüzə": 5272,
  "müh": 5273,
  "müt": 5274,
  "müx": 5275,
  "müş,": 5276,
  "müşkül": 5277,
  "mısan,": 5278,
  "məclisini": 5279,
  "məclisinə": 5280,
  "məclisə": 5281,
  "məgər,": 5282,
  "məkdir": 5283,
  "məktu": 5284,
  "məli": 5285,
  "mərhəm": 5286,
  "məsini": 5287,
  "məsləh": 5288,
  "məğrur": 5289,
  "məşuq": 5290,
  "məşğul": 5291,
  "nah": 5292,
  "nail": 5293,
  "nazik": 5294,
  "naç": 5295,
  "nif": 5296,
  "nində": 5297,
  "niqabı": 5298,
  "nur,": 5299,
  "nəfər": 5300,
  "nələr": 5301,
  "nəql": 5302,
  "odunda": 5303,
  "olacaqsan.": 5304,
  "olana": 5305,
  "olanda": 5306,
  "oldum.": 5307,
  "olmadan.": 5308,
  "olmamış": 5309,
  "onlar,": 5310,
  "os": 5311,
  "oxuyurlar.": 5312,
  "paxıl": 5313,
  "peyda": 5314,
  "pənc": 5315,
  "pərişan,": 5316,
  "qa,": 5317,
  "qadağ": 5318,
  "qadir": 5319,
  "qamətin": 5320,
  "qamətinə": 5321,
  "qanın": 5322,
  "qanından": 5323,
  "qarşıs": 5324,
  "qas": 5325,
  "qatında": 5326,
  "qayıt": 5327,
  "qaçma,": 5328,
  "qaşları": 5329,
  "qoc": 5330,
  "qocal": 5331,
  "qoyma,": 5332,
  "quyru": 5333,
  "qüdrətli": 5334,
  "qüss": 5335,
  "qüsur": 5336,
  "qüv": 5337,
  "qüvv": 5338,
  "qılıncını": 5339,
  "qəddin": 5340,
  "qədri": 5341,
  "qəlbimi": 5342,
  "qəlbini": 5343,
  "qələndər.": 5344,
  "qəm-": 5345,
  "qəminin": 5346,
  "qəminə": 5347,
  "qəmli": 5348,
  "qəmzən": 5349,
  "qəmzəsi": 5350,
  "qərarım": 5351,
  "qətlə": 5352,
  "ram": 5353,
  "raz": 5354,
  "ruhu": 5355,
  "ruhum,": 5356,
  "rul": 5357,
  "rövnəq": 5358,
  "rəd": 5359,
  "rəsm": 5360,
  "rətin": 5361,
  "rəvan,": 5362,
  "sabit": 5363,
  "sad": 5364,
  "salan": 5365,
  "sarı": 5366,
  "saydı": 5367,
  "sevin": 5368,
  "sevən": 5369,
  "sevər.": 5370,
  "sifətli,": 5371,
  "sinəsi": 5372,
  "sirdaş": 5373,
  "sirlərini": 5374,
  "sirrini,": 5375,
  "sitəm": 5376,
  "sona": 5377,
  "sonra.": 5378,
  "soruşdum,": 5379,
  "su.": 5380,
  "suyuna": 5381,
  "söndü,": 5382,
  "söndür": 5383,
  "sözlərini": 5384,
  "sözüm": 5385,
  "sübh.": 5386,
  "sı": 5387,
  "sız-": 5388,
  "səcdəgahım": 5389,
  "səhər.": 5390,
  "səkkiz": 5391,
  "səri": 5392,
  "sərv,": 5393,
  "səv": 5394,
  "tacı": 5395,
  "tanım": 5396,
  "tapmaq": 5397,
  "taqət": 5398,
  "tar,": 5399,
  "telləri": 5400,
  "torpağı!": 5401,
  "tut.": 5402,
  "tuta": 5403,
  "tutdu": 5404,
  "tutmuş,": 5405,
  "tökdü": 5406,
  "tökdü,": 5407,
  "töküb": 5408,
  "tü": 5409,
  "tüfəng": 5410,
  "tükən": 5411,
  "tüstüs": 5412,
  "təbiəti": 5413,
  "təf": 5414,
  "təkr": 5415,
  "tərəf.": 5416,
  "təvaf": 5417,
  "uldu": 5418,
  "ullah": 5419,
  "unda,": 5420,
  "urlu": 5421,
  "usu,": 5422,
  "uyla": 5423,
  "vac": 5424,
  "vacib": 5425,
  "valeh": 5426,
  "verdim": 5427,
  "verdin,": 5428,
  "vermədin.": 5429,
  "vermək": 5430,
  "verməz": 5431,
  "versin,": 5432,
  "versə,": 5433,
  "versən,": 5434,
  "vilay": 5435,
  "vurdu,": 5436,
  "vəb": 5437,
  "vəc": 5438,
  "vəslini": 5439,
  "vəslinə": 5440,
  "xaq": 5441,
  "xurma": 5442,
  "xəcal": 5443,
  "xətti": 5444,
  "xəyalın": 5445,
  "xəzinəsinin": 5446,
  "xəzinəsinə": 5447,
  "yanağına": 5448,
  "yanda": 5449,
  "yandırır,": 5450,
  "yanına,": 5451,
  "yapış": 5452,
  "yarə": 5453,
  "yaxşıdır": 5454,
  "yaxşıdır,": 5455,
  "yaşay": 5456,
  "yaşlarımın": 5457,
  "yaşlı": 5458,
  "yaşı,": 5459,
  "yaşını,": 5460,
  "yerin": 5461,
  "yersiz": 5462,
  "yerə,": 5463,
  "yəqin,": 5464,
  "za": 5465,
  "zinət": 5466,
  "zövqlə": 5467,
  "zün": 5468,
  "zə": 5469,
  "Üzündən": 5470,
  "ça": 5471,
  "çatmaz,": 5472,
  "çev": 5473,
  "çevril": 5474,
  "çinin": 5475,
  "çisi": 5476,
  "çoxdur.": 5477,
  "çökünt": 5478,
  "çəkir.": 5479,
  "çəkməy": 5480,
  "çətindir": 5481,
  "ömrü": 5482,
  "üfrə": 5483,
  "ülfət": 5484,
  "ülmüş": 5485,
  "ündən,": 5486,
  "ünsür": 5487,
  "ürəm,": 5488,
  "üstə,": 5489,
  "üzlüm,": 5490,
  "ğu": 5491,
  "ğı": 5492,
  "İm": 5493,
  "ım!": 5494,
  "ının,": 5495,
  "ığı,": 5496,
  "Şəh": 5497,
  "Şəm": 5498,
  "şam.": 5499,
  "şamın": 5500,
  "şeydən": 5501,
  "şövqlə": 5502,
  "şübhəsiz": 5503,
  "şüur": 5504,
  "şəkil": 5505,
  "şəx": 5506,
  "Ək": 5507,
  "Əli!": 5508,
  "Əyri": 5509,
  "əg": 5510,
  "əklər": 5511,
  "əlbət,": 5512,
  "əm:": 5513,
  "əmri": 5514,
  "əmələ": 5515,
  "əndər": 5516,
  "ərdim": 5517,
  "ərdim,": 5518,
  "ərdə": 5519,
  "ərkən,": 5520,
  "ərlər": 5521,
  "əsla,": 5522,
  "əsəri": 5523,
  "ət.": 5524,
  "ətim,": 5525,
  "əzz": 5526,
  "əzəm": 5527,
  "\"S": 5528,
  "\"n": 5529,
  "\"Ən": 5530,
  "-san": 5531,
  "1.": 5532,
  "2.": 5533,
  "3.": 5534,
  "4.": 5535,
  "9.": 5536,
  "Ala": 5537,
  "Aləmə": 5538,
  "Arif": 5539,
  "Arx": 5540,
  "Ayağının": 5541,
  "Ağlın": 5542,
  "Bad": 5543,
  "Badə": 5544,
  "Bi": 5545,
  "Boyunun": 5546,
  "Bulud": 5547,
  "Burada": 5548,
  "Burda": 5549,
  "Büt": 5550,
  "Bənzər": 5551,
  "Cahan": 5552,
  "Ciyərimin": 5553,
  "Cəfər,": 5554,
  "Dilbər": 5555,
  "Dodaqların": 5556,
  "Dostun": 5557,
  "Dördüncü": 5558,
  "Düşmənin": 5559,
  "Dəli": 5560,
  "Dərdin": 5561,
  "Dərgah": 5562,
  "Eh": 5563,
  "Eşit": 5564,
  "Fani": 5565,
  "Get,": 5566,
  "Guya": 5567,
  "Görərsən": 5568,
  "Göyün": 5569,
  "Gözlərin": 5570,
  "Gözəllik": 5571,
  "Gözəlliy": 5572,
  "Gözəlliyinə": 5573,
  "Günah": 5574,
  "Gəlib": 5575,
  "Haqqı": 5576,
  "Hatəm": 5577,
  "He": 5578,
  "Hiylə": 5579,
  "Hökm": 5580,
  "Həqiqətən,": 5581,
  "Həsrətindən": 5582,
  "Kim,": 5583,
  "Kimin": 5584,
  "Kitab": 5585,
  "Könlünü": 5586,
  "Kür": 5587,
  "Kən": 5588,
  "Leyl": 5589,
  "Lövh": 5590,
  "Mir": 5591,
  "Musanın": 5592,
  "Mustafanın": 5593,
  "Mö": 5594,
  "Müşk": 5595,
  "Məhşər": 5596,
  "Məhəb": 5597,
  "Məlik": 5598,
  "Məsc": 5599,
  "Məsihin": 5600,
  "Mət": 5601,
  "Natəvan": 5602,
  "Ne": 5603,
  "Nun": 5604,
  "Onları": 5605,
  "Ovçu": 5606,
  "Pey": 5607,
  "Peyğəm": 5608,
  "Pul": 5609,
  "Qaz": 5610,
  "Qazilər,": 5611,
  "Qis": 5612,
  "Qon": 5613,
  "Quru": 5614,
  "Qüdrət": 5615,
  "Qəmin": 5616,
  "Qəribə": 5617,
  "Ruz": 5618,
  "Ruzig": 5619,
  "Sevgilim,": 5620,
  "Sid": 5621,
  "Surətinin": 5622,
  "Sözə": 5623,
  "Sə": 5624,
  "Səh": 5625,
  "Səm": 5626,
  "Səy": 5627,
  "Tu": 5628,
  "Tülkü": 5629,
  "Təz": 5630,
  "Uc": 5631,
  "Ust": 5632,
  "Uç": 5633,
  "Vaqifi,": 5634,
  "Vətən": 5635,
  "Xaqanini": 5636,
  "Xeyr": 5637,
  "Xoras": 5638,
  "Xətayi": 5639,
  "Yaralı": 5640,
  "Yarım": 5641,
  "Yəh": 5642,
  "Zöhr": 5643,
  "Zövq": 5644,
  "Züleyxa": 5645,
  "acı,": 5646,
  "adi,": 5647,
  "adıma": 5648,
  "adən": 5649,
  "alarını": 5650,
  "allı": 5651,
  "alt-üst": 5652,
  "alım,": 5653,
  "alıq": 5654,
  "amaq": 5655,
  "amətin": 5656,
  "anlığım": 5657,
  "anə,": 5658,
  "ar!": 5659,
  "arkən": 5660,
  "artar,": 5661,
  "asından,": 5662,
  "atdan": 5663,
  "atə": 5664,
  "atəşə": 5665,
  "axar": 5666,
  "aya.": 5667,
  "aydan": 5668,
  "ayım,": 5669,
  "ağızlı,": 5670,
  "bac": 5671,
  "bacarıq": 5672,
  "baxa": 5673,
  "baxmaq": 5674,
  "bağrımın": 5675,
  "başda": 5676,
  "behiş": 5677,
  "bildim": 5678,
  "bilmərəm,": 5679,
  "bilməs": 5680,
  "bilsin,": 5681,
  "bilsən,": 5682,
  "birinə": 5683,
  "birləş": 5684,
  "bizdən": 5685,
  "borc": 5686,
  "boylu,": 5687,
  "burulğ": 5688,
  "böhtan": 5689,
  "bürüdü,": 5690,
  "büt,": 5691,
  "bədəni": 5692,
  "bədənin": 5693,
  "bəladır": 5694,
  "bəladır,": 5695,
  "bəlası": 5696,
  "bəsdir,": 5697,
  "bətin": 5698,
  "bəx": 5699,
  "bəxi-": 5700,
  "bəy,": 5701,
  "bəyin": 5702,
  "camdan": 5703,
  "cavan,": 5704,
  "cazib": 5705,
  "cisminə": 5706,
  "ciyərim": 5707,
  "cəhd": 5708,
  "cən": 5709,
  "cənnətin": 5710,
  "cəza": 5711,
  "dadı": 5712,
  "dadına": 5713,
  "dadır,": 5714,
  "damla": 5715,
  "damla-damla": 5716,
  "darı": 5717,
  "dası": 5718,
  "dax": 5719,
  "daşlar": 5720,
  "dedilər:": 5721,
  "dilb": 5722,
  "dilinə": 5723,
  "din.": 5724,
  "dind": 5725,
  "dinini": 5726,
  "diyara": 5727,
  "diyin": 5728,
  "dodaqlar": 5729,
  "dodağına": 5730,
  "doludur": 5731,
  "dostuna": 5732,
  "durdu,": 5733,
  "duğun": 5734,
  "dövri-": 5735,
  "dözüm": 5736,
  "düzəl": 5737,
  "düşərmi?": 5738,
  "dırdı.": 5739,
  "dısa,": 5740,
  "dərd,": 5741,
  "dərdi-": 5742,
  "dərdü-": 5743,
  "dərgahının": 5744,
  "dərman,": 5745,
  "dəx": 5746,
  "dəyişdim.": 5747,
  "edim?": 5748,
  "edirlər.": 5749,
  "elmi": 5750,
  "elmə": 5751,
  "eləm": 5752,
  "erməni.": 5753,
  "etmişdi.": 5754,
  "etmişəm": 5755,
  "etmək,": 5756,
  "etmərəm,": 5757,
  "etməyən": 5758,
  "evin": 5759,
  "evinə": 5760,
  "eyləmiş.": 5761,
  "eyləmə,": 5762,
  "fak": 5763,
  "faydası": 5764,
  "fik": 5765,
  "fikirləri": 5766,
  "fəda.": 5767,
  "fəlak": 5768,
  "fələk.": 5769,
  "fələkdə": 5770,
  "fələyə": 5771,
  "fəqirlik": 5772,
  "gecələr,": 5773,
  "gecələr.": 5774,
  "gedərəm,": 5775,
  "get": 5776,
  "giryan": 5777,
  "gördün": 5778,
  "gördüy": 5779,
  "görmüşəm": 5780,
  "görmədim": 5781,
  "görməmişəm,": 5782,
  "görüncə": 5783,
  "görünən": 5784,
  "göstərir.": 5785,
  "gövh": 5786,
  "göyərç": 5787,
  "gözü,": 5788,
  "gözəldir": 5789,
  "gözəlim,": 5790,
  "gözəlliyin": 5791,
  "gözəlliyinə": 5792,
  "gülab": 5793,
  "güldü,": 5794,
  "gülü,": 5795,
  "gülər": 5796,
  "günbəgün": 5797,
  "gündən,": 5798,
  "günündə": 5799,
  "güzgüs": 5800,
  "gə": 5801,
  "gəldin,": 5802,
  "gəlibdir.": 5803,
  "gəlmişlərdənik.": 5804,
  "gər,": 5805,
  "gətirər,": 5806,
  "gəzint": 5807,
  "gəzir,": 5808,
  "halına": 5809,
  "halından": 5810,
  "hara,": 5811,
  "harda": 5812,
  "havası": 5813,
  "haz": 5814,
  "haşa": 5815,
  "hekay": 5816,
  "hic": 5817,
  "hikmətlə": 5818,
  "hiyl": 5819,
  "ho": 5820,
  "hörmətlə": 5821,
  "hüsnün": 5822,
  "həf": 5823,
  "həkim,": 5824,
  "həlak": 5825,
  "hərarət": 5826,
  "hərfi": 5827,
  "həsrətindən,": 5828,
  "həvəsi": 5829,
  "həya": 5830,
  "i-n": 5831,
  "i;": 5832,
  "icazə": 5833,
  "idlər": 5834,
  "ildırım": 5835,
  "ilk": 5836,
  "im-": 5837,
  "im:": 5838,
  "imdad!": 5839,
  "in-": 5840,
  "inciy": 5841,
  "insana": 5842,
  "insanların": 5843,
  "irmi": 5844,
  "isinə": 5845,
  "ism": 5846,
  "istədi,": 5847,
  "istəməz": 5848,
  "istəməz,": 5849,
  "istəs": 5850,
  "ita": 5851,
  "itaət": 5852,
  "itə": 5853,
  "ixtiy": 5854,
  "iyn": 5855,
  "iyyətlə": 5856,
  "iz.": 5857,
  "içib,": 5858,
  "içir": 5859,
  "içrə": 5860,
  "işində": 5861,
  "işinə": 5862,
  "işığ": 5863,
  "k,": 5864,
  "kain": 5865,
  "kamillik": 5866,
  "kağızın,": 5867,
  "kaş": 5868,
  "keyf": 5869,
  "keç.": 5870,
  "kimdir": 5871,
  "kimin": 5872,
  "kimsənin": 5873,
  "kir": 5874,
  "könlümdə": 5875,
  "könlümdən": 5876,
  "könlündə": 5877,
  "könlünə": 5878,
  "künc": 5879,
  "küncündədir.": 5880,
  "kürk": 5881,
  "kəb": 5882,
  "kəmər": 5883,
  "kəsi": 5884,
  "ladım": 5885,
  "lanıb": 5886,
  "lap": 5887,
  "lar?": 5888,
  "lasın,": 5889,
  "lat": 5890,
  "layıb,": 5891,
  "li.": 5892,
  "liberaliz": 5893,
  "lin": 5894,
  "lisi": 5895,
  "liyəm,": 5896,
  "löv": 5897,
  "lütfün": 5898,
  "lüy": 5899,
  "lım,": 5900,
  "ləlin": 5901,
  "lər?": 5902,
  "lərə,": 5903,
  "ləz": 5904,
  "ləziz.": 5905,
  "madın,": 5906,
  "malıdır.": 5907,
  "mamış,": 5908,
  "mane": 5909,
  "maral": 5910,
  "mayın": 5911,
  "mayın,": 5912,
  "mazsan": 5913,
  "meylə": 5914,
  "misil": 5915,
  "misən,": 5916,
  "mişdi,": 5917,
  "mu,": 5918,
  "mu?": 5919,
  "muradına": 5920,
  "möm": 5921,
  "mömin": 5922,
  "mü?": 5923,
  "mübarək": 5924,
  "müdr": 5925,
  "müf": 5926,
  "müjd": 5927,
  "müqəddəs": 5928,
  "mürş": 5929,
  "müsib": 5930,
  "müst": 5931,
  "müsəl": 5932,
  "müyəssər": 5933,
  "müəm": 5934,
  "məclisdə": 5935,
  "mədim,": 5936,
  "məktub": 5937,
  "məli,": 5938,
  "mələkdir,": 5939,
  "mənada": 5940,
  "mənadan": 5941,
  "mənzilidir.": 5942,
  "məsc": 5943,
  "məv": 5944,
  "məyus": 5945,
  "məğ": 5946,
  "nak": 5947,
  "naləm": 5948,
  "naq": 5949,
  "narahat": 5950,
  "naş": 5951,
  "neməti": 5952,
  "nemətə": 5953,
  "nic": 5954,
  "nigar": 5955,
  "nin": 5956,
  "nizam": 5957,
  "nura": 5958,
  "nuş": 5959,
  "nümun": 5960,
  "nəb": 5961,
  "nətic": 5962,
  "nəv": 5963,
  "nəzm": 5964,
  "nəzər,": 5965,
  "oduyla": 5966,
  "olacaq.": 5967,
  "olanlar": 5968,
  "olasan": 5969,
  "olduqca": 5970,
  "olmaram,": 5971,
  "onu,": 5972,
  "oturmuş.": 5973,
  "oxları": 5974,
  "oxum": 5975,
  "oxunun": 5976,
  "oxşayır.": 5977,
  "oyaq": 5978,
  "oğur": 5979,
  "oş": 5980,
  "pa": 5981,
  "peyğəmbərin": 5982,
  "peşman": 5983,
  "piy": 5984,
  "piyal": 5985,
  "pişik": 5986,
  "pozul": 5987,
  "pünh": 5988,
  "pəl": 5989,
  "pərdəsiz": 5990,
  "pərgar": 5991,
  "qaf": 5992,
  "qalar.": 5993,
  "qalmışam,": 5994,
  "qaməti": 5995,
  "qan.": 5996,
  "qanun": 5997,
  "qanım": 5998,
  "qanıma": 5999,
  "qapında": 6000,
  "qarşıl": 6001,
  "qazan,": 6002,
  "qaşların": 6003,
  "qaşını": 6004,
  "qiyməti": 6005,
  "qopar,": 6006,
  "qorum": 6007,
  "qorxusundan": 6008,
  "qoşunu": 6009,
  "qulu": 6010,
  "qür": 6011,
  "qüt": 6012,
  "qıf": 6013,
  "qılıncının": 6014,
  "qısqan": 6015,
  "qığılc": 6016,
  "qələmi": 6017,
  "qəmin": 6018,
  "qənim": 6019,
  "qəsr": 6020,
  "qətin": 6021,
  "qəş": 6022,
  "ras": 6023,
  "riya": 6024,
  "ruhi-": 6025,
  "röv": 6026,
  "rüx": 6027,
  "rəhmsiz": 6028,
  "rəqib,": 6029,
  "rəss": 6030,
  "sabah": 6031,
  "salmış,": 6032,
  "sanc": 6033,
  "sancıl": 6034,
  "saqqalı": 6035,
  "saxla,": 6036,
  "saxsı": 6037,
  "say,": 6038,
  "saçı": 6039,
  "sevdaya": 6040,
  "sevdiy": 6041,
  "sevgiliyə": 6042,
  "seyrinə": 6043,
  "sid": 6044,
  "sirrimi": 6045,
  "sirrinə": 6046,
  "sizin": 6047,
  "solğun": 6048,
  "sonda": 6049,
  "sonra,": 6050,
  "sor.": 6051,
  "suda": 6052,
  "sudan": 6053,
  "suf": 6054,
  "sul": 6055,
  "sular": 6056,
  "sultanım!": 6057,
  "söhbəti": 6058,
  "sök": 6059,
  "sük": 6060,
  "sünn": 6061,
  "səhərə": 6062,
  "sənindir.": 6063,
  "sənmi?": 6064,
  "sərasər": 6065,
  "sərd": 6066,
  "səsini": 6067,
  "tapdal": 6068,
  "tapdı": 6069,
  "tapınca.": 6070,
  "tapşırdım.": 6071,
  "tinin": 6072,
  "torpaqdan": 6073,
  "torpağa,": 6074,
  "torpağında": 6075,
  "torpağından": 6076,
  "tozundan": 6077,
  "tutan": 6078,
  "tutar.": 6079,
  "tutuquş": 6080,
  "tökmək": 6081,
  "tökər,": 6082,
  "törət": 6083,
  "tülkü": 6084,
  "təbim": 6085,
  "tədqiq": 6086,
  "təlim": 6087,
  "tələs": 6088,
  "təmir": 6089,
  "təməli": 6090,
  "təqlid": 6091,
  "tərav": 6092,
  "tərt": 6093,
  "təzədən": 6094,
  "udum": 6095,
  "ulduzu": 6096,
  "umma": 6097,
  "unla": 6098,
  "uram": 6099,
  "uram,": 6100,
  "usuna": 6101,
  "ux": 6102,
  "uya": 6103,
  "uyur": 6104,
  "uzu": 6105,
  "uğrar.": 6106,
  "vah": 6107,
  "vanın": 6108,
  "varmı?": 6109,
  "vasil": 6110,
  "verdin.": 6111,
  "verirəm,": 6112,
  "verirəm.": 6113,
  "verə": 6114,
  "verən,": 6115,
  "vurub,": 6116,
  "vüs": 6117,
  "vüsalın": 6118,
  "vəhy": 6119,
  "vərəq": 6120,
  "xah": 6121,
  "xam": 6122,
  "xat": 6123,
  "xeyir-": 6124,
  "xir": 6125,
  "xoşdurmu?": 6126,
  "xud": 6127,
  "xüsus": 6128,
  "xəbərsiz,": 6129,
  "xəcil": 6130,
  "xələt": 6131,
  "xəs": 6132,
  "xəy": 6133,
  "xəyalına": 6134,
  "yalançı": 6135,
  "yanağın": 6136,
  "yandan": 6137,
  "yanmış": 6138,
  "yanıram.": 6139,
  "yatan": 6140,
  "yaxşıl": 6141,
  "yazmışlar.": 6142,
  "yaşlarım": 6143,
  "yaşımla": 6144,
  "yenidən": 6145,
  "yerlə": 6146,
  "yerləş": 6147,
  "yoldaşı": 6148,
  "yoxdursa,": 6149,
  "yuxuya": 6150,
  "yükünü": 6151,
  "yün": 6152,
  "zid": 6153,
  "zil": 6154,
  "zillət": 6155,
  "zülmünü": 6156,
  "zəhərli": 6157,
  "zəmanənin": 6158,
  "zərb": 6159,
  "Çən": 6160,
  "Ürəyimin": 6161,
  "Üzündə": 6162,
  "Üzündəki": 6163,
  "çaq": 6164,
  "çatdı": 6165,
  "çay": 6166,
  "çağı": 6167,
  "çör-çöp": 6168,
  "çı,": 6169,
  "çəkdir": 6170,
  "çəkməz,": 6171,
  "ölkə": 6172,
  "öpüm.": 6173,
  "övh": 6174,
  "öyrənd": 6175,
  "özgəl": 6176,
  "üfr": 6177,
  "ülgüc": 6178,
  "ümidi": 6179,
  "üncə": 6180,
  "üstündə,": 6181,
  "üv": 6182,
  "üz,": 6183,
  "üzdə": 6184,
  "üzlül": 6185,
  "üzlünün": 6186,
  "üzül": 6187,
  "üzümü": 6188,
  "üçü": 6189,
  "ğum": 6190,
  "ğın": 6191,
  "İkinci": 6192,
  "İmam": 6193,
  "İsgəndər": 6194,
  "İstəy": 6195,
  "İt": 6196,
  "ıdıb,": 6197,
  "ımızı": 6198,
  "ırlar,": 6199,
  "ısından": 6200,
  "ızı": 6201,
  "ığa": 6202,
  "Şer": 6203,
  "Şəhər": 6204,
  "Şəkər": 6205,
  "şagir": 6206,
  "şahi-": 6207,
  "şam,": 6208,
  "şan-": 6209,
  "şanı": 6210,
  "şeh": 6211,
  "şeyx": 6212,
  "şöləsi": 6213,
  "şövqün": 6214,
  "şüar": 6215,
  "şübhə": 6216,
  "şüm": 6217,
  "şəfəq": 6218,
  "şəhəri": 6219,
  "şəkl": 6220,
  "şərabdan": 6221,
  "şərabından": 6222,
  "şərbəti": 6223,
  "şərəfli": 6224,
  "Əb": 6225,
  "Əcəb": 6226,
  "Əlidir.": 6227,
  "Əziz": 6228,
  "əcən": 6229,
  "ədim,": 6230,
  "əfəndi.": 6231,
  "əfəndim,": 6232,
  "əkar": 6233,
  "əlbət": 6234,
  "əlim": 6235,
  "əlindən,": 6236,
  "əliylə": 6237,
  "ələrdə": 6238,
  "ələrdən": 6239,
  "ələrlə": 6240,
  "əmdir.": 6241,
  "əmm": 6242,
  "ənbə": 6243,
  "əndən,": 6244,
  "əngi": 6245,
  "ənin,": 6246,
  "ərit": 6247,
  "ərkan": 6248,
  "ərlər,": 6249,
  "ərr": 6250,
  "əsidir": 6251,
  "əsiyəm,": 6252,
  "əsiz,": 6253,
  "əss": 6254,
  "ətlən": 6255,
  "ətç": 6256,
  "ətəyi": 6257,
  "ətəyindən": 6258,
  "ətəyini.": 6259,
  "əyim,": 6260,
  "əyinin": 6261,
  "əyən": 6262,
  "əzəldən,": 6263,
  "əzəli": 6264,
  "\"Bu": 6265,
  "\"Kaf": 6266,
  "\"in": 6267,
  "),": 6268,
  "-səhər": 6269,
  "8.": 6270,
  "Abdul": 6271,
  "Ah,": 6272,
  "Aləm": 6273,
  "Aləmin": 6274,
  "Art": 6275,
  "Atəş": 6276,
  "Ayağ": 6277,
  "Ayn": 6278,
  "Ayna": 6279,
  "Ayrılığından": 6280,
  "Ayı": 6281,
  "Ağa": 6282,
  "Ağac": 6283,
  "Ağzı": 6284,
  "Ağzın": 6285,
  "Aşiqlər": 6286,
  "Bayr": 6287,
  "Bağda": 6288,
  "Başqal": 6289,
  "Başım": 6290,
  "Başın": 6291,
  "Beş": 6292,
  "Birinə": 6293,
  "Bizi": 6294,
  "Boz": 6295,
  "Bul": 6296,
  "Bunun": 6297,
  "Bülbülün": 6298,
  "Bənövş": 6299,
  "Bənövşə": 6300,
  "Cahanın": 6301,
  "Canan": 6302,
  "Ceyr": 6303,
  "Cis": 6304,
  "Cismim": 6305,
  "Cür": 6306,
  "Cəmalın": 6307,
  "Cəs": 6308,
  "Dan": 6309,
  "Deyirlər": 6310,
  "Dir": 6311,
  "Dostluq": 6312,
  "Doğru": 6313,
  "Dövrün": 6314,
  "Dəc": 6315,
  "Dədəm,": 6316,
  "Dən": 6317,
  "Dərdim": 6318,
  "Dərdimin": 6319,
  "Dərhal": 6320,
  "Ehtiy": 6321,
  "Eşqi": 6322,
  "Fitn": 6323,
  "Füzul": 6324,
  "Fəqirlik": 6325,
  "Fərh": 6326,
  "Fəzl": 6327,
  "Fəğ": 6328,
  "Ger": 6329,
  "Göylər": 6330,
  "Göyərç": 6331,
  "Gözümdə": 6332,
  "Gözün": 6333,
  "Gözəllər": 6334,
  "Güc": 6335,
  "Gülün": 6336,
  "Günəşə": 6337,
  "Halımı": 6338,
  "Hav": 6339,
  "Hic": 6340,
  "Hüsnünə": 6341,
  "Həl": 6342,
  "Həram": 6343,
  "Hərdən": 6344,
  "Kain": 6345,
  "Kak": 6346,
  "Kar": 6347,
  "Kasıb": 6348,
  "Kimə": 6349,
  "Kök": 6350,
  "Küfr": 6351,
  "Kəlam": 6352,
  "Kərbəla": 6353,
  "Kərəm": 6354,
  "Lamək": 6355,
  "Layiq": 6356,
  "M.Ə.": 6357,
  "Mahm": 6358,
  "Mal": 6359,
  "Meh": 6360,
  "Misrə": 6361,
  "Mol": 6362,
  "Muhamməddir,": 6363,
  "Mur": 6364,
  "Möhkəm": 6365,
  "Möhnət": 6366,
  "Möminin": 6367,
  "Mülk": 6368,
  "Mümkün": 6369,
  "Müt": 6370,
  "Mütrüb": 6371,
  "Müğənni,": 6372,
  "Müştər": 6373,
  "Məda": 6374,
  "Mədin": 6375,
  "Mənimlə": 6376,
  "Mərifət": 6377,
  "Məry": 6378,
  "Məryəmin": 6379,
  "Nalə": 6380,
  "Namaz": 6381,
  "Neç": 6382,
  "Nit": 6383,
  "Novruz": 6384,
  "Nur": 6385,
  "Nədən": 6386,
  "Nəhayət,": 6387,
  "Pənc": 6388,
  "Qalsın": 6389,
  "Qarabağ": 6390,
  "Qaranlıq": 6391,
  "Qaşların": 6392,
  "Qaşınla": 6393,
  "Qibləgahım": 6394,
  "Qiyamət": 6395,
  "Qoca": 6396,
  "Qorxum": 6397,
  "Qur'": 6398,
  "Quy": 6399,
  "Quşlar": 6400,
  "Qüs": 6401,
  "Qırmızı": 6402,
  "Qış": 6403,
  "Qəlbim": 6404,
  "Qələm": 6405,
  "Qəmdən": 6406,
  "Qəmindən": 6407,
  "Qərib": 6408,
  "Qəz": 6409,
  "Riz": 6410,
  "Rum": 6411,
  "Ruzi": 6412,
  "Rəbbim,": 6413,
  "Sahib": 6414,
  "Saqqal": 6415,
  "Sevgili": 6416,
  "Sim": 6417,
  "Simurğ": 6418,
  "Sizə": 6419,
  "Soruş": 6420,
  "Soy": 6421,
  "Suf": 6422,
  "Söh": 6423,
  "Səadət": 6424,
  "Səba,": 6425,
  "Səhərin": 6426,
  "Səmər": 6427,
  "Sənsən": 6428,
  "Səxavət": 6429,
  "Tamam": 6430,
  "Tif": 6431,
  "Təbr": 6432,
  "Təh": 6433,
  "Təl": 6434,
  "Tərk": 6435,
  "Utan": 6436,
  "Uşaq": 6437,
  "Va": 6438,
  "Var-": 6439,
  "Vay,": 6440,
  "Vid": 6441,
  "Vəl": 6442,
  "Vəs": 6443,
  "Xalqın": 6444,
  "Xeyli": 6445,
  "Xüsus": 6446,
  "Xızra": 6447,
  "Xənc": 6448,
  "Xəttin": 6449,
  "Xəyal": 6450,
  "Yad": 6451,
  "Yal": 6452,
  "Yanağın": 6453,
  "Yarad": 6454,
  "Yat": 6455,
  "Yaxın": 6456,
  "Ye": 6457,
  "Yed": 6458,
  "Yox,": 6459,
  "Yusifə": 6460,
  "Yəm": 6461,
  "Yəmən": 6462,
  "Zahir": 6463,
  "Zakir,": 6464,
  "Zəh": 6465,
  "Zəif": 6466,
  "abat": 6467,
  "abı,": 6468,
  "ac,": 6469,
  "acan": 6470,
  "acağ": 6471,
  "adama": 6472,
  "adəm": 6473,
  "adətdir,": 6474,
  "afətdən": 6475,
  "ahü": 6476,
  "al!": 6477,
  "ald": 6478,
  "aldat": 6479,
  "allah": 6480,
  "almış": 6481,
  "altında,": 6482,
  "alçal": 6483,
  "aləmini": 6484,
  "aləminə": 6485,
  "amla": 6486,
  "amma,": 6487,
  "anb": 6488,
  "aqdır": 6489,
  "araya": 6490,
  "ardı,": 6491,
  "ardı.": 6492,
  "ardım,": 6493,
  "artdı,": 6494,
  "arından": 6495,
  "arətlə": 6496,
  "asiman": 6497,
  "ast": 6498,
  "ası.": 6499,
  "asıdır,": 6500,
  "asına,": 6501,
  "asını,": 6502,
  "asənmiş": 6503,
  "atlı": 6504,
  "atıb,": 6505,
  "atıl": 6506,
  "atına": 6507,
  "atəşli": 6508,
  "avam": 6509,
  "axdı,": 6510,
  "axirət": 6511,
  "axirətdə": 6512,
  "axşamı": 6513,
  "ayağından": 6514,
  "aydı.": 6515,
  "aydım": 6516,
  "ayiq": 6517,
  "aynası": 6518,
  "ayrıldıq.": 6519,
  "ayrılığa": 6520,
  "ayrılığın": 6521,
  "azar": 6522,
  "açılmaz,": 6523,
  "açılmış": 6524,
  "açılır": 6525,
  "ağ,": 6526,
  "ağıl,": 6527,
  "ağımı": 6528,
  "aşağı": 6529,
  "aşikar": 6530,
  "aşiqəm.": 6531,
  "bacar": 6532,
  "ban,": 6533,
  "barış": 6534,
  "bas,": 6535,
  "baxmaram,": 6536,
  "bayramı": 6537,
  "bağı,": 6538,
  "bağın": 6539,
  "bağını": 6540,
  "bağışlan": 6541,
  "başa,": 6542,
  "başdan-başa": 6543,
  "başqasına": 6544,
  "bihuş": 6545,
  "bim": 6546,
  "bivəfa,": 6547,
  "biş": 6548,
  "boynuma": 6549,
  "boynuna": 6550,
  "boynunda": 6551,
  "boyun,": 6552,
  "bunca": 6553,
  "bunlar": 6554,
  "buz": 6555,
  "buğ": 6556,
  "böh": 6557,
  "bün": 6558,
  "bürc": 6559,
  "büsbütün": 6560,
  "bütöv": 6561,
  "bədbəxt": 6562,
  "bədəndən": 6563,
  "bədənimdə": 6564,
  "bəlasını": 6565,
  "bəlli": 6566,
  "bəndə": 6567,
  "bərək": 6568,
  "bərəng": 6569,
  "bəsdir": 6570,
  "bəzm": 6571,
  "bəzəyi": 6572,
  "bəzəyən": 6573,
  "camına": 6574,
  "cana,": 6575,
  "cananı": 6576,
  "cansız": 6577,
  "canına,": 6578,
  "cid": 6579,
  "cilovunu": 6580,
  "cismim": 6581,
  "cövhəri": 6582,
  "cövlan": 6583,
  "cüb": 6584,
  "cüml": 6585,
  "cürbəcür": 6586,
  "cəhal": 6587,
  "cəhətdən": 6588,
  "cək": 6589,
  "dada": 6590,
  "dairə": 6591,
  "dalğa": 6592,
  "damc": 6593,
  "dan?": 6594,
  "daraq": 6595,
  "dağlar": 6596,
  "dağılsın.": 6597,
  "dağını": 6598,
  "daşürək": 6599,
  "ddən": 6600,
  "dedilər": 6601,
  "dedim:": 6602,
  "demiş": 6603,
  "deməz": 6604,
  "desə": 6605,
  "deyirdi": 6606,
  "deyirlər": 6607,
  "deyərlər.": 6608,
  "di:": 6609,
  "dik,": 6610,
  "dildara": 6611,
  "dilimdə": 6612,
  "dilin": 6613,
  "dinar": 6614,
  "dincəl": 6615,
  "dirsə,": 6616,
  "divanə,": 6617,
  "diyini": 6618,
  "dodaqların": 6619,
  "dosta": 6620,
  "dostum": 6621,
  "dul": 6622,
  "dum.": 6623,
  "durma,": 6624,
  "durmuş": 6625,
  "durmuş.": 6626,
  "dönən": 6627,
  "dönər,": 6628,
  "dövrdə": 6629,
  "düm": 6630,
  "düşmüşəm": 6631,
  "düşməni": 6632,
  "düşmənə": 6633,
  "düşməy": 6634,
  "düşməz.": 6635,
  "düşə": 6636,
  "düşəndə,": 6637,
  "dı:": 6638,
  "dıqca,": 6639,
  "dəlilik": 6640,
  "dən?": 6641,
  "dənə": 6642,
  "dərb": 6643,
  "dərdi.": 6644,
  "dərdin,": 6645,
  "dərgahına": 6646,
  "dəstə": 6647,
  "dət": 6648,
  "dəvə": 6649,
  "dəyməz": 6650,
  "dəyən": 6651,
  "dəyərini": 6652,
  "edim.": 6653,
  "edin,": 6654,
  "edək,": 6655,
  "ehr": 6656,
  "ehtiy": 6657,
  "elədi": 6658,
  "etdikcə": 6659,
  "etir": 6660,
  "etmədi": 6661,
  "etmədi.": 6662,
  "etmədin,": 6663,
  "etməklə": 6664,
  "etməyim": 6665,
  "evində.": 6666,
  "eyvan": 6667,
  "eşidib,": 6668,
  "f,": 6669,
  "fariğ": 6670,
  "feyzini": 6671,
  "fikrindən": 6672,
  "filankəsin": 6673,
  "fən": 6674,
  "fəqih": 6675,
  "fəqirə": 6676,
  "fəryadım": 6677,
  "fəza": 6678,
  "fəğanə": 6679,
  "gecəm": 6680,
  "gedər": 6681,
  "getd": 6682,
  "getsə": 6683,
  "göhər": 6684,
  "görmürəm,": 6685,
  "görmüşəm,": 6686,
  "görməmiş": 6687,
  "görməz,": 6688,
  "görünər,": 6689,
  "görə,": 6690,
  "görəndə,": 6691,
  "görər,": 6692,
  "götürüb,": 6693,
  "gövhərini": 6694,
  "gözləri,": 6695,
  "gözlərim,": 6696,
  "gözlərə": 6697,
  "gözüm,": 6698,
  "gözəldir,": 6699,
  "gözəlliyini": 6700,
  "gözəlliyə": 6701,
  "gözəllərdən": 6702,
  "gülünü": 6703,
  "gülüstanı": 6704,
  "gülüzlü": 6705,
  "günlərində": 6706,
  "gününü": 6707,
  "güvən": 6708,
  "güzg": 6709,
  "gəlib.": 6710,
  "gəlsin!": 6711,
  "gələ": 6712,
  "gələ.": 6713,
  "gələr.": 6714,
  "gəmi": 6715,
  "gərəkdir,": 6716,
  "gətirdi": 6717,
  "gətirdi.": 6718,
  "gəzdim,": 6719,
  "gəzər": 6720,
  "halımı,": 6721,
  "haş": 6722,
  "hek": 6723,
  "heyrət": 6724,
  "hicranın": 6725,
  "hicranının": 6726,
  "hikməti": 6727,
  "hind": 6728,
  "his": 6729,
  "hök": 6730,
  "hökmr": 6731,
  "həbibim,": 6732,
  "həmdəm,": 6733,
  "həmsöhbət": 6734,
  "həqiqəti": 6735,
  "hərif": 6736,
  "ibrət": 6737,
  "ida": 6738,
  "idən,": 6739,
  "iftix": 6740,
  "ifə": 6741,
  "ikdə": 6742,
  "ikisinə": 6743,
  "il.": 6744,
  "ildir": 6745,
  "ilham": 6746,
  "ili,": 6747,
  "ilib": 6748,
  "ilt": 6749,
  "iltifat": 6750,
  "ilə.": 6751,
  "ilərlə": 6752,
  "imdad.": 6753,
  "imli": 6754,
  "imlər": 6755,
  "imlərin": 6756,
  "incini": 6757,
  "incis": 6758,
  "indədir": 6759,
  "inləy": 6760,
  "inqil": 6761,
  "ipini": 6762,
  "iqbal": 6763,
  "iql": 6764,
  "iqət": 6765,
  "irad": 6766,
  "isində": 6767,
  "istə": 6768,
  "istəsə,": 6769,
  "istəyirəm,": 6770,
  "ixtiyarım": 6771,
  "iyaz": 6772,
  "iyində": 6773,
  "izdir.": 6774,
  "izz": 6775,
  "içib": 6776,
  "içinə": 6777,
  "işdir,": 6778,
  "işdən": 6779,
  "işi,": 6780,
  "işli": 6781,
  "iə": 6782,
  "i”": 6783,
  "kainat": 6784,
  "kak": 6785,
  "kaman,": 6786,
  "kar,": 6787,
  "kimdən": 6788,
  "kiprik": 6789,
  "kirp": 6790,
  "kitabı": 6791,
  "ko": 6792,
  "kölgəsində": 6793,
  "körpə": 6794,
  "köyn": 6795,
  "külək": 6796,
  "küncünü": 6797,
  "küsmüş": 6798,
  "küçəs": 6799,
  "kədərli": 6800,
  "kək": 6801,
  "kələk": 6802,
  "kəramət": 6803,
  "kəsdə": 6804,
  "kəşf": 6805,
  "la.": 6806,
  "laləz": 6807,
  "lazımdır.": 6808,
  "laç": 6809,
  "lidir": 6810,
  "liq": 6811,
  "liyim": 6812,
  "lub": 6813,
  "ludur,": 6814,
  "luqda": 6815,
  "luğu": 6816,
  "lüm,": 6817,
  "ləndi,": 6818,
  "lənət": 6819,
  "lərinə,": 6820,
  "lərəm": 6821,
  "lətin": 6822,
  "ləyib": 6823,
  "mahiyyət": 6824,
  "maq!": 6825,
  "maq?": 6826,
  "maqdır,": 6827,
  "masan,": 6828,
  "masına": 6829,
  "mayıb,": 6830,
  "mazdı,": 6831,
  "me": 6832,
  "meydanında": 6833,
  "minbər": 6834,
  "minlərlə": 6835,
  "mir,": 6836,
  "mirvari": 6837,
  "miz": 6838,
  "möhür": 6839,
  "möminin": 6840,
  "mötəb": 6841,
  "mötəd": 6842,
  "möv": 6843,
  "mövc": 6844,
  "mövz": 6845,
  "mü-": 6846,
  "mübahis": 6847,
  "mübar": 6848,
  "müdam,": 6849,
  "müjdə": 6850,
  "mükaf": 6851,
  "mülkün": 6852,
  "mürüvvət": 6853,
  "müşəm": 6854,
  "mədəni,": 6855,
  "məhr": 6856,
  "məhəbbətə": 6857,
  "mək.": 6858,
  "məkana": 6859,
  "mələklər": 6860,
  "mənbəy": 6861,
  "məndə,": 6862,
  "mənfə": 6863,
  "mənz": 6864,
  "məqamı": 6865,
  "mərif": 6866,
  "mərəm!": 6867,
  "mərəm.": 6868,
  "məst.": 6869,
  "məyi": 6870,
  "məyib,": 6871,
  "nadir": 6872,
  "nagah": 6873,
  "nalə,": 6874,
  "namə": 6875,
  "ney,": 6876,
  "ni": 6877,
  "nigar,": 6878,
  "nih": 6879,
  "niqabını": 6880,
  "nişanı": 6881,
  "nurlan": 6882,
  "nurunu": 6883,
  "nurunun": 6884,
  "nök": 6885,
  "nöqt": 6886,
  "nöqtə": 6887,
  "nü": 6888,
  "nük": 6889,
  "nüm": 6890,
  "nəcib": 6891,
  "nəfəsim": 6892,
  "nəqşini": 6893,
  "nərd": 6894,
  "nərg": 6895,
  "nəsihətç": 6896,
  "nəvaz": 6897,
  "nəzərdən": 6898,
  "nəzəri": 6899,
  "olanı": 6900,
  "olanın": 6901,
  "olarsa,": 6902,
  "oldu?": 6903,
  "oldular.": 6904,
  "olmadan": 6905,
  "olmaqdan": 6906,
  "olmusan,": 6907,
  "olmuşdu,": 6908,
  "olsa.": 6909,
  "olsun?": 6910,
  "olu": 6911,
  "olubdur.": 6912,
  "olursa": 6913,
  "ondan,": 6914,
  "onundur,": 6915,
  "orad": 6916,
  "oradadır.": 6917,
  "oruc": 6918,
  "ova": 6919,
  "oxundan": 6920,
  "padşahı": 6921,
  "pal": 6922,
  "pap": 6923,
  "para": 6924,
  "parlay": 6925,
  "pasib": 6926,
  "payız": 6927,
  "polad": 6928,
  "pusq": 6929,
  "pərdədən": 6930,
  "pəri.": 6931,
  "pərvaz": 6932,
  "qalar,": 6933,
  "qaldım,": 6934,
  "qalmaq": 6935,
  "qalır": 6936,
  "qan,": 6937,
  "qaran": 6938,
  "qarət": 6939,
  "qaydas": 6940,
  "qazanmaq": 6941,
  "qeyri-": 6942,
  "qeyri.": 6943,
  "qeyrət": 6944,
  "qid": 6945,
  "qis": 6946,
  "qiymətini": 6947,
  "qol-": 6948,
  "qorxmaz,": 6949,
  "qoyan": 6950,
  "qoymaz,": 6951,
  "qoyn": 6952,
  "qu": 6953,
  "qun": 6954,
  "qurmuş": 6955,
  "qurtu": 6956,
  "quşu,": 6957,
  "qüb": 6958,
  "qürurlu": 6959,
  "qüssədən": 6960,
  "qüssəyə": 6961,
  "qıldı,": 6962,
  "qısa": 6963,
  "qıvr": 6964,
  "qıvrım": 6965,
  "qızılı": 6966,
  "qəbrimin": 6967,
  "qəmim": 6968,
  "qəmxar": 6969,
  "qəmzənin": 6970,
  "qənd,": 6971,
  "qərənfil": 6972,
  "qərəz.": 6973,
  "qəsdinə": 6974,
  "qəzəblən": 6975,
  "r,": 6976,
  "raf": 6977,
  "rar": 6978,
  "raş": 6979,
  "ric": 6980,
  "rik": 6981,
  "rind": 6982,
  "rist": 6983,
  "runun": 6984,
  "rus": 6985,
  "rüd": 6986,
  "rüt": 6987,
  "rənginə": 6988,
  "rəngə": 6989,
  "sakin": 6990,
  "salmaq": 6991,
  "salmışdır.": 6992,
  "salsa": 6993,
  "san!": 6994,
  "saqi": 6995,
  "savab": 6996,
  "saydı,": 6997,
  "saçar": 6998,
  "sağl": 6999,
  "sağlam": 7000,
  "se": 7001,
  "seh": 7002,
  "seyy": 7003,
  "sik": 7004,
  "sor,": 7005,
  "sufi": 7006,
  "sultanı": 7007,
  "sulu": 7008,
  "sunu": 7009,
  "surəti,": 7010,
  "surətin": 7011,
  "surətini": 7012,
  "suyundan": 7013,
  "sözlü": 7014,
  "sün.": 7015,
  "sürt": 7016,
  "sığmaz": 7017,
  "səba,": 7018,
  "səbrim": 7019,
  "sədr": 7020,
  "səfası": 7021,
  "səma": 7022,
  "sənindir,": 7023,
  "sənsiz,": 7024,
  "sənsən.": 7025,
  "səpər,": 7026,
  "sərmay": 7027,
  "sərməst": 7028,
  "səsi,": 7029,
  "səsl": 7030,
  "səxavətli": 7031,
  "səydi,": 7032,
  "tacı,": 7033,
  "tale": 7034,
  "tamam,": 7035,
  "tanı,": 7036,
  "tapar": 7037,
  "tapdı.": 7038,
  "tapmadım": 7039,
  "tapmışam.": 7040,
  "tatar": 7041,
  "taxtına": 7042,
  "taxtında": 7043,
  "telinə": 7044,
  "tikana": 7045,
  "tikanı": 7046,
  "to": 7047,
  "tut!": 7048,
  "tutar": 7049,
  "tutsa,": 7050,
  "tutuş": 7051,
  "tuz": 7052,
  "töküb,": 7053,
  "tövhid": 7054,
  "tül": 7055,
  "tülk": 7056,
  "tüstü": 7057,
  "təbib,": 7058,
  "təc": 7059,
  "təcəl": 7060,
  "təki": 7061,
  "təklif": 7062,
  "təkəb": 7063,
  "tənəsindən": 7064,
  "təqsir": 7065,
  "tərəddü": 7066,
  "təsəlli": 7067,
  "təx": 7068,
  "təzahür": 7069,
  "təzim": 7070,
  "təşv": 7071,
  "təəccüblü": 7072,
  "ucuz": 7073,
  "ular": 7074,
  "ulduzları": 7075,
  "umar": 7076,
  "umuz": 7077,
  "undakı": 7078,
  "uzaq,": 7079,
  "uçub": 7080,
  "uğan": 7081,
  "uğu": 7082,
  "uğurlu": 7083,
  "uğursuz": 7084,
  "vad": 7085,
  "van,": 7086,
  "vaq": 7087,
  "var!": 7088,
  "vardı.": 7089,
  "varlığı": 7090,
  "vaxt,": 7091,
  "vaxta": 7092,
  "ver.": 7093,
  "verdiyi": 7094,
  "vermədi,": 7095,
  "versin": 7096,
  "verəsən": 7097,
  "vurar": 7098,
  "vurdu": 7099,
  "vurub": 7100,
  "vüsalı": 7101,
  "vüsalının": 7102,
  "vəslin": 7103,
  "xalç": 7104,
  "xalını": 7105,
  "xasiyyətli,": 7106,
  "xislət": 7107,
  "xosr": 7108,
  "xoşuna": 7109,
  "xristi": 7110,
  "xır": 7111,
  "xırda": 7112,
  "xənc": 7113,
  "xəstəyə": 7114,
  "xətadır,": 7115,
  "xəyala": 7116,
  "xəzinəd": 7117,
  "yadın": 7118,
  "yan.": 7119,
  "yandım,": 7120,
  "yanıb": 7121,
  "yanında,": 7122,
  "yaratdı.": 7123,
  "yarpaq": 7124,
  "yarını": 7125,
  "yazmaq": 7126,
  "yazı": 7127,
  "yazıq,": 7128,
  "yağmal": 7129,
  "yağışı": 7130,
  "yaşıllıq": 7131,
  "yeganə": 7132,
  "yem": 7133,
  "yenə,": 7134,
  "yeri,": 7135,
  "yerində": 7136,
  "yesə": 7137,
  "yi": 7138,
  "yon": 7139,
  "yurdu": 7140,
  "yuxu": 7141,
  "za,": 7142,
  "zalım,": 7143,
  "zar-zar": 7144,
  "zav": 7145,
  "zi": 7146,
  "zövqündən": 7147,
  "zövqünü,": 7148,
  "zühur": 7149,
  "züm": 7150,
  "zəm": 7151,
  "Çar": 7152,
  "Çat": 7153,
  "Çöhr": 7154,
  "Çəm": 7155,
  "Ömrüm": 7156,
  "Özümü": 7157,
  "Üm": 7158,
  "Üst": 7159,
  "çaqqal": 7160,
  "çarəsiz": 7161,
  "çatan": 7162,
  "çatar,": 7163,
  "çiçəyi": 7164,
  "çoxdan": 7165,
  "çölə": 7166,
  "çöp": 7167,
  "çıraq": 7168,
  "çırağ": 7169,
  "çırağı": 7170,
  "çıx,": 7171,
  "çıxıb,": 7172,
  "çıxır": 7173,
  "çəkilib": 7174,
  "çəkmiş": 7175,
  "çəkməz": 7176,
  "çənə": 7177,
  "öhr": 7178,
  "öldür,": 7179,
  "ölü": 7180,
  "ölül": 7181,
  "özümə": 7182,
  "üb.": 7183,
  "üdə": 7184,
  "üdən": 7185,
  "ülən": 7186,
  "ümidim": 7187,
  "ümüz": 7188,
  "ündə,": 7189,
  "üns": 7190,
  "üqar": 7191,
  "ürfan": 7192,
  "üryan": 7193,
  "ürəyimi": 7194,
  "ürəyin": 7195,
  "üstündən": 7196,
  "üz-": 7197,
  "üzv": 7198,
  "üzündür,": 7199,
  "üçün.": 7200,
  "İstərəm": 7201,
  "ı)": 7202,
  "ıbsan": 7203,
  "ıları": 7204,
  "ılt": 7205,
  "ımda,": 7206,
  "ımızdır,": 7207,
  "ımızın": 7208,
  "ınca,": 7209,
  "ındadır": 7210,
  "ındadır.": 7211,
  "ındır,": 7212,
  "ıqdır": 7213,
  "ısan.": 7214,
  "ıst": 7215,
  "ıyan": 7216,
  "Şahım,": 7217,
  "Şey": 7218,
  "Şik": 7219,
  "Şirvana": 7220,
  "Şükr": 7221,
  "Şəri": 7222,
  "şad,": 7223,
  "şahidi": 7224,
  "şahının": 7225,
  "şahən": 7226,
  "şamına": 7227,
  "şaq": 7228,
  "şe": 7229,
  "şeyda": 7230,
  "şeyin": 7231,
  "şidd": 7232,
  "şirin-": 7233,
  "şübhəsiz,": 7234,
  "şükr": 7235,
  "şükür,": 7236,
  "şümşad": 7237,
  "şəhrini": 7238,
  "şəhərində": 7239,
  "şəhərini": 7240,
  "şəkildə": 7241,
  "şəklinə": 7242,
  "ƏN": 7243,
  "Ədal": 7244,
  "Ədalət": 7245,
  "Əhd": 7246,
  "Əldə": 7247,
  "Əlhəm": 7248,
  "Əlində": 7249,
  "Əlindən": 7250,
  "Əlli": 7251,
  "Əql": 7252,
  "Əv": 7253,
  "ə'": 7254,
  "ə-dönə": 7255,
  "ə-gündüz": 7256,
  "ə:": 7257,
  "əca": 7258,
  "əcək,": 7259,
  "əcəyəm,": 7260,
  "əda": 7261,
  "ədir?": 7262,
  "ədə,": 7263,
  "əfsanə": 7264,
  "əfəndi!": 7265,
  "əhlindən": 7266,
  "əhvalını": 7267,
  "ək?": 7268,
  "əklə": 7269,
  "əksin": 7270,
  "əksini": 7271,
  "əlimə": 7272,
  "əminin": 7273,
  "əmir": 7274,
  "əmməs": 7275,
  "əmə,": 7276,
  "ənd,": 7277,
  "əndə.": 7278,
  "ənlərə": 7279,
  "ərdi,": 7280,
  "ərdin": 7281,
  "ərim": 7282,
  "ərlə": 7283,
  "ərənlər.": 7284,
  "əsi!": 7285,
  "əsirgəmə,": 7286,
  "əsk": 7287,
  "əsrin": 7288,
  "əxlaq": 7289,
  "əyan": 7290,
  "əydi.": 7291,
  "əyi-": 7292,
  "əyir,": 7293,
  "əylən": 7294,
  "“Ey": 7295,
  "\"L": 7296,
  "\"nun": 7297,
  "-eş": 7298,
  "ALI": 7299,
  "Adəmə": 7300,
  "Adətdir": 7301,
  "Ahım": 7302,
  "Ana": 7303,
  "Ast": 7304,
  "Axı": 7305,
  "Aya": 7306,
  "Ayın": 7307,
  "Azərbay": 7308,
  "Ağıllı": 7309,
  "Ba": 7310,
  "Bac": 7311,
  "Bağdadda": 7312,
  "Başımın": 7313,
  "Başında": 7314,
  "Bildi": 7315,
  "Bilirəm,": 7316,
  "Bilmirəm": 7317,
  "Bis": 7318,
  "Bud": 7319,
  "Bunca": 7320,
  "Bədənim": 7321,
  "Bəla": 7322,
  "Bən": 7323,
  "Bəng": 7324,
  "Bəsdir,": 7325,
  "Cəbr": 7326,
  "Cəbra": 7327,
  "Cəmin": 7328,
  "Cənnətdə": 7329,
  "Cənnətin": 7330,
  "Dam": 7331,
  "Dax": 7332,
  "Did": 7333,
  "Dinlə": 7334,
  "Dodağından": 7335,
  "Dövranın": 7336,
  "Dünyadan": 7337,
  "Dəcc": 7338,
  "EY": 7339,
  "Eyş-işrət": 7340,
  "Eşqini": 7341,
  "Eşş": 7342,
  "Fikrim": 7343,
  "Firid": 7344,
  "Fəx": 7345,
  "Fəzli-": 7346,
  "Gö": 7347,
  "Göndər": 7348,
  "Gör,": 7349,
  "Görək": 7350,
  "Görəsən,": 7351,
  "Gövhər": 7352,
  "Gözlərim": 7353,
  "Gözlərimdən": 7354,
  "Gözlərimin": 7355,
  "Gözlərinin": 7356,
  "Gözümü": 7357,
  "Gözəllikdə": 7358,
  "Gülüst": 7359,
  "Güzgü": 7360,
  "Hamı": 7361,
  "Haqq-": 7362,
  "Hat": 7363,
  "Heydər": 7364,
  "Hün": 7365,
  "Hüs": 7366,
  "Hüsnün": 7367,
  "Həmdəmim": 7368,
  "Həqdən": 7369,
  "Kafir": 7370,
  "Kamil": 7371,
  "Kimdə": 7372,
  "Kimi": 7373,
  "Kuf": 7374,
  "Kö": 7375,
  "Köv": 7376,
  "Kövs": 7377,
  "Kün": 7378,
  "Kəbənin": 7379,
  "Kəl": 7380,
  "Kəm": 7381,
  "Lay": 7382,
  "Leyli": 7383,
  "Leylinin": 7384,
  "Mar": 7385,
  "Mehdi": 7386,
  "Misr": 7387,
  "Möhn": 7388,
  "Möm": 7389,
  "Mübar": 7390,
  "Müd": 7391,
  "Müştəri": 7392,
  "Məhəmmədin": 7393,
  "Məktu": 7394,
  "Mənada": 7395,
  "Mənzil": 7396,
  "Mərd": 7397,
  "Məsələn,": 7398,
  "Narınc": 7399,
  "Nuşirəvan": 7400,
  "Nəfsini": 7401,
  "Nəm": 7402,
  "Nəsimiyə": 7403,
  "Nəzər": 7404,
  "Onsuz": 7405,
  "Oruc": 7406,
  "Os": 7407,
  "Payız": 7408,
  "Peyğəmbərin": 7409,
  "Pən": 7410,
  "Qab": 7411,
  "Qamətinin": 7412,
  "Qarabağın": 7413,
  "Qarışqa": 7414,
  "Qat": 7415,
  "Qaşın": 7416,
  "Qib": 7417,
  "Qiy": 7418,
  "Qocalıq": 7419,
  "Qov": 7420,
  "Qönç": 7421,
  "Qönçənin": 7422,
  "Qürbət": 7423,
  "Qıl": 7424,
  "Qısası,": 7425,
  "Qız": 7426,
  "Qəlbi": 7427,
  "Qəlbimi": 7428,
  "Qəm-": 7429,
  "Qənaət": 7430,
  "Qəza": 7431,
  "Riyakar": 7432,
  "Rus": 7433,
  "Rəbb?": 7434,
  "Rəqibin": 7435,
  "Sad": 7436,
  "Sakit": 7437,
  "Sarı": 7438,
  "Sevinc": 7439,
  "Sey": 7440,
  "Seyy": 7441,
  "Seyyidin": 7442,
  "Sif": 7443,
  "Siz": 7444,
  "Solğun": 7445,
  "Sordum": 7446,
  "Sufi": 7447,
  "Söhbət": 7448,
  "Sözüm": 7449,
  "Süb": 7450,
  "Süh": 7451,
  "Sın": 7452,
  "Səcdə": 7453,
  "Səmim": 7454,
  "Sənsiz,": 7455,
  "Tamah": 7456,
  "Tel": 7457,
  "Tİ": 7458,
  "Təbi": 7459,
  "Təc": 7460,
  "Tərav": 7461,
  "Ud": 7462,
  "Vah": 7463,
  "Val": 7464,
  "Vüsalının": 7465,
  "Vəslinə": 7466,
  "Xaliq": 7467,
  "Xalın": 7468,
  "Xidmət": 7469,
  "Xorasan": 7470,
  "Xosrov": 7471,
  "Xızrın": 7472,
  "Xəbərsiz": 7473,
  "Xətayi,": 7474,
  "Xəy": 7475,
  "Yalnız": 7476,
  "Yaqut": 7477,
  "Yav": 7478,
  "Yazıq": 7479,
  "Yenidən": 7480,
  "Yetiş": 7481,
  "Yoxsa,": 7482,
  "Zahiri": 7483,
  "Zar": 7484,
  "Zülmət": 7485,
  "Zəmzəm": 7486,
  "Zəng": 7487,
  "Zərif": 7488,
  "abid": 7489,
  "adar.": 7490,
  "adıb": 7491,
  "afiq": 7492,
  "ahat": 7493,
  "alar.": 7494,
  "alara": 7495,
  "alarda": 7496,
  "aları,": 7497,
  "aldanma,": 7498,
  "alma": 7499,
  "alına.": 7500,
  "alır.": 7501,
  "amdan": 7502,
  "an-": 7503,
  "anc": 7504,
  "andır!": 7505,
  "anları": 7506,
  "anların": 7507,
  "apardı.": 7508,
  "aqdır,": 7509,
  "ar;": 7510,
  "aras": 7511,
  "araş": 7512,
  "ardınca": 7513,
  "arla": 7514,
  "asib": 7515,
  "asılı": 7516,
  "atma,": 7517,
  "atmış": 7518,
  "atəşini": 7519,
  "atəşinə": 7520,
  "axıl": 7521,
  "axşam,": 7522,
  "ayaqdan": 7523,
  "ayağın": 7524,
  "ayna,": 7525,
  "ayırdı,": 7526,
  "ayə,": 7527,
  "ayətdir,": 7528,
  "azdır,": 7529,
  "azil": 7530,
  "açdı.": 7531,
  "açma,": 7532,
  "açmaq": 7533,
  "açılınca": 7534,
  "açıq,": 7535,
  "açıq-": 7536,
  "ağaca": 7537,
  "ağlas": 7538,
  "ağzından": 7539,
  "aşikar,": 7540,
  "aşina": 7541,
  "aşiqlər": 7542,
  "aşkar,": 7543,
  "bada": 7544,
  "badə,": 7545,
  "balası": 7546,
  "balıq": 7547,
  "barmaq": 7548,
  "baxdıqca": 7549,
  "baxıb,": 7550,
  "bayatı": 7551,
  "bazarında": 7552,
  "bağban": 7553,
  "bağladı,": 7554,
  "bağlama": 7555,
  "bağlayıb": 7556,
  "bağrına": 7557,
  "başlanğıc": 7558,
  "başqa,": 7559,
  "başqası": 7560,
  "başçısı": 7561,
  "bet": 7562,
  "beyt": 7563,
  "bih": 7564,
  "bilirsən": 7565,
  "bilm": 7566,
  "bilmədi,": 7567,
  "bilməm,": 7568,
  "bimar": 7569,
  "biqər": 7570,
  "bir-": 7571,
  "birinin": 7572,
  "birlik": 7573,
  "bivəfa": 7574,
  "biy": 7575,
  "boyan": 7576,
  "boyl": 7577,
  "boylum,": 7578,
  "boynunu": 7579,
  "boğ": 7580,
  "budağı": 7581,
  "bulağı": 7582,
  "buraxdı.": 7583,
  "burn": 7584,
  "buyn": 7585,
  "bülbülü": 7586,
  "bürcünün": 7587,
  "bürüm": 7588,
  "büs": 7589,
  "bəbəkləri": 7590,
  "bədx": 7591,
  "bədəm": 7592,
  "bədənimdən": 7593,
  "bədənimi": 7594,
  "bədənli,": 7595,
  "bəhrələn": 7596,
  "bək": 7597,
  "bəlasına": 7598,
  "bəllidir": 7599,
  "bəndə,": 7600,
  "bənzər?": 7601,
  "bərabər,": 7602,
  "bərk": 7603,
  "bəsirət": 7604,
  "bəxt,": 7605,
  "bəylik": 7606,
  "bəşər": 7607,
  "camalı": 7608,
  "camı,": 7609,
  "candır": 7610,
  "canla": 7611,
  "canından": 7612,
  "car": 7613,
  "cilal": 7614,
  "cilvəl": 7615,
  "cismimi": 7616,
  "civə": 7617,
  "cövhəri,": 7618,
  "cül": 7619,
  "cə.": 7620,
  "cəmalın": 7621,
  "cənn": 7622,
  "cənnət,": 7623,
  "cəsinə": 7624,
  "cəvahir": 7625,
  "daimi": 7626,
  "daml": 7627,
  "danı": 7628,
  "darın": 7629,
  "dava": 7630,
  "daşını": 7631,
  "dedim": 7632,
  "deh": 7633,
  "deməyə": 7634,
  "deyilsənsə,": 7635,
  "di-": 7636,
  "didara": 7637,
  "didarına": 7638,
  "dilbərim,": 7639,
  "dilsiz": 7640,
  "dilənç": 7641,
  "dimdiy": 7642,
  "dinim,": 7643,
  "dinlə,": 7644,
  "diqqət": 7645,
  "dir!": 7646,
  "diyarında": 7647,
  "dolanıb": 7648,
  "doldu": 7649,
  "doğuldu": 7650,
  "duman": 7651,
  "dustaq": 7652,
  "dönmüş": 7653,
  "dönər": 7654,
  "dönər.": 7655,
  "dövranı": 7656,
  "dükcə": 7657,
  "dülər,": 7658,
  "dünyanı,": 7659,
  "dünyaya,": 7660,
  "düşdün,": 7661,
  "düşmüş,": 7662,
  "düşmüşdür,": 7663,
  "düşməsin.": 7664,
  "dılmış": 7665,
  "dəfn": 7666,
  "dəhrdə": 7667,
  "dəm,": 7668,
  "dəm.": 7669,
  "dəmirdən": 7670,
  "dənizin": 7671,
  "dənizində": 7672,
  "dərdi,": 7673,
  "dərdindən": 7674,
  "dərdindən,": 7675,
  "dərdlə": 7676,
  "dərdü": 7677,
  "dərdə,": 7678,
  "dəstə,": 7679,
  "dəyişik": 7680,
  "dəyməsin,": 7681,
  "dəyərli": 7682,
  "edibdir": 7683,
  "edilib.": 7684,
  "edilən": 7685,
  "edirlər": 7686,
  "edirlər,": 7687,
  "edirsən?": 7688,
  "edirəm.": 7689,
  "edənlərə": 7690,
  "edənə": 7691,
  "edərsən,": 7692,
  "elç": 7693,
  "eləyim": 7694,
  "enmiş": 7695,
  "etdikcə,": 7696,
  "etdikdə,": 7697,
  "etdiyin": 7698,
  "etiraz": 7699,
  "etmiş.": 7700,
  "etmişdir": 7701,
  "etməkdən": 7702,
  "etməm": 7703,
  "etməsə,": 7704,
  "etməzdimmi?": 7705,
  "etsə.": 7706,
  "etsəm": 7707,
  "evinin": 7708,
  "eybini": 7709,
  "eylədi,": 7710,
  "eyləsin": 7711,
  "eyni": 7712,
  "eşidib": 7713,
  "eşqin,": 7714,
  "eşqindən": 7715,
  "fasil": 7716,
  "faydasız": 7717,
  "fikrini": 7718,
  "fikrə": 7719,
  "fitnəkar": 7720,
  "fırlanan": 7721,
  "fəda!": 7722,
  "fək": 7723,
  "fəlsəfə": 7724,
  "fərqli": 7725,
  "fəslində": 7726,
  "fəzilət": 7727,
  "gecəsi,": 7728,
  "ger": 7729,
  "girmiş": 7730,
  "gördükdə": 7731,
  "görmədi,": 7732,
  "görəndən": 7733,
  "görər": 7734,
  "görər.": 7735,
  "görəsən,": 7736,
  "göstərdi.": 7737,
  "göyər": 7738,
  "gözlü": 7739,
  "gözlü,": 7740,
  "gözlərimin": 7741,
  "gözlərimə": 7742,
  "gözümə,": 7743,
  "gözə,": 7744,
  "gözəli,": 7745,
  "gözəlliyi": 7746,
  "gözəllər,": 7747,
  "gözəllərə": 7748,
  "gülgün": 7749,
  "gülzara": 7750,
  "gülzarı": 7751,
  "gülüstanə": 7752,
  "gülşənə": 7753,
  "gülər,": 7754,
  "günahkar": 7755,
  "günlər": 7756,
  "günəşi,": 7757,
  "güzgüdə": 7758,
  "gəldik": 7759,
  "gəldiniz.": 7760,
  "gəlmədi,": 7761,
  "gətirmi": 7762,
  "gətirmə": 7763,
  "gətirsin": 7764,
  "gəzdi,": 7765,
  "hacət": 7766,
  "halımın": 7767,
  "hamıya": 7768,
  "haqqa": 7769,
  "haqqı,": 7770,
  "haqqında": 7771,
  "haqsız": 7772,
  "hara": 7773,
  "hava": 7774,
  "havada": 7775,
  "havaya": 7776,
  "hekayət": 7777,
  "heyh": 7778,
  "heyran,": 7779,
  "heyvan.": 7780,
  "heyvanı": 7781,
  "hicran.": 7782,
  "hid": 7783,
  "hünər,": 7784,
  "həddini": 7785,
  "həftə": 7786,
  "həmd": 7787,
  "hərdəm": 7788,
  "həris": 7789,
  "hərəkət": 7790,
  "hərəm": 7791,
  "həsrəti": 7792,
  "həsrətlə": 7793,
  "həvalə": 7794,
  "i)": 7795,
  "i-b": 7796,
  "ibi.": 7797,
  "ibim,": 7798,
  "ibin": 7799,
  "iddiası": 7800,
  "iddiaç": 7801,
  "idin,": 7802,
  "ilana": 7803,
  "iliyin": 7804,
  "im!": 7805,
  "iman,": 7806,
  "imana": 7807,
  "imanım,": 7808,
  "imizin": 7809,
  "imləri": 7810,
  "imper": 7811,
  "imsə,": 7812,
  "ina": 7813,
  "indi.": 7814,
  "inkişaf": 7815,
  "inlər": 7816,
  "insanı": 7817,
  "intizar": 7818,
  "inəm,": 7819,
  "iq,": 7820,
  "irdim,": 7821,
  "irdən": 7822,
  "irsənsə,": 7823,
  "is,": 7824,
  "istədi.": 7825,
  "istəmə,": 7826,
  "istərdim,": 7827,
  "istəsə": 7828,
  "istəyirdim,": 7829,
  "istəyə.": 7830,
  "istəyən": 7831,
  "isən.": 7832,
  "iydi": 7833,
  "iylə,": 7834,
  "iynə": 7835,
  "içirt": 7836,
  "içsə,": 7837,
  "içər,": 7838,
  "işarə": 7839,
  "işarət": 7840,
  "işimiz": 7841,
  "işindən": 7842,
  "işlərinə": 7843,
  "kakil": 7844,
  "kamilliyi": 7845,
  "kasıb": 7846,
  "kağız": 7847,
  "keçib": 7848,
  "keçir,": 7849,
  "kitabıdır,": 7850,
  "kişi,": 7851,
  "kölgəsini": 7852,
  "köməy": 7853,
  "könüldə": 7854,
  "körpüdən": 7855,
  "kövsər": 7856,
  "kü": 7857,
  "külək,": 7858,
  "küləyindən": 7859,
  "kürs": 7860,
  "küs": 7861,
  "küçəndə": 7862,
  "küçəsinin": 7863,
  "kə,": 7864,
  "kədər,": 7865,
  "kərd": 7866,
  "kərim": 7867,
  "kərpic": 7868,
  "kəsdən": 7869,
  "kəsib": 7870,
  "lamaq": 7871,
  "lan,": 7872,
  "landı.": 7873,
  "lanır,": 7874,
  "lara.": 7875,
  "lardır,": 7876,
  "larına,": 7877,
  "larını,": 7878,
  "lisən,": 7879,
  "liyindən": 7880,
  "luğun": 7881,
  "lütfünü": 7882,
  "lıdır": 7883,
  "lının,": 7884,
  "lış": 7885,
  "ləbindən": 7886,
  "ləmək": 7887,
  "ləndir": 7888,
  "lənib": 7889,
  "lərdir": 7890,
  "ləç": 7891,
  "ləçəyi": 7892,
  "mad": 7893,
  "madan.": 7894,
  "malını": 7895,
  "matəm": 7896,
  "mayıb.": 7897,
  "mazsan,": 7898,
  "mağından": 7899,
  "mehman": 7900,
  "mehraba": 7901,
  "memar": 7902,
  "meydanda": 7903,
  "meyli": 7904,
  "meyvə": 7905,
  "meyə": 7906,
  "meş": 7907,
  "misk": 7908,
  "mişdi": 7909,
  "musan": 7910,
  "möcüzəsi": 7911,
  "mövl": 7912,
  "mövs": 7913,
  "müal": 7914,
  "mübahisə": 7915,
  "müjg": 7916,
  "mürid": 7917,
  "müxtəlif": 7918,
  "müğ": 7919,
  "müşdür,": 7920,
  "müştaqam,": 7921,
  "müştəri": 7922,
  "mışdır?": 7923,
  "məclisin": 7924,
  "mədə": 7925,
  "mədəni": 7926,
  "məhbub": 7927,
  "məhf": 7928,
  "məhrumiyyət": 7929,
  "məhəb": 7930,
  "məkanı": 7931,
  "məkdir,": 7932,
  "məlamət": 7933,
  "məlidir,": 7934,
  "mənbəyi": 7935,
  "mənbəyi.": 7936,
  "məqbul": 7937,
  "mərdlik": 7938,
  "mərdüm": 7939,
  "məscid": 7940,
  "nalə-": 7941,
  "naləmdən": 7942,
  "naləsi": 7943,
  "nan": 7944,
  "nas": 7945,
  "naxışlı": 7946,
  "naxışını": 7947,
  "naz-": 7948,
  "neyləyim,": 7949,
  "nigarın": 7950,
  "nisan": 7951,
  "nov": 7952,
  "nurudur,": 7953,
  "nöqtəsi": 7954,
  "nümay": 7955,
  "nüsx": 7956,
  "nütf": 7957,
  "nəfəs,": 7958,
  "nəfəsindən": 7959,
  "nərgizə": 7960,
  "nəticəsi": 7961,
  "nəğməl": 7962,
  "nəğmələr": 7963,
  "odda": 7964,
  "odun": 7965,
  "odunu": 7966,
  "olandan,": 7967,
  "olardı": 7968,
  "olasan.": 7969,
  "olduğunu.": 7970,
  "olmasaydı,": 7971,
  "olmağa": 7972,
  "olmuşdu": 7973,
  "olsan,": 7974,
  "ondan.": 7975,
  "orda": 7976,
  "oturub": 7977,
  "ovdan": 7978,
  "oxu,": 7979,
  "oxşam": 7980,
  "padşah,": 7981,
  "palt": 7982,
  "palçıq": 7983,
  "pam": 7984,
  "parə": 7985,
  "pil": 7986,
  "puç": 7987,
  "pünhan": 7988,
  "pərv": 7989,
  "qabaq": 7990,
  "qala": 7991,
  "qaldırdı,": 7992,
  "qalmamış": 7993,
  "qalmışam": 7994,
  "qamətini": 7995,
  "qan-yaş": 7996,
  "qandır.": 7997,
  "qanunu": 7998,
  "qapıl": 7999,
  "qapına": 8000,
  "qapısına": 8001,
  "qarşında": 8002,
  "qat-": 8003,
  "qaydadır,": 8004,
  "qayğı": 8005,
  "qayğısını": 8006,
  "qazanc": 8007,
  "qaçar": 8008,
  "qaşı,": 8009,
  "qaşına": 8010,
  "qonaqlar,": 8011,
  "qonağ": 8012,
  "qorxmur": 8013,
  "qovğ": 8014,
  "qovğa": 8015,
  "qoydum,": 8016,
  "qoyun": 8017,
  "qoşa": 8018,
  "qru": 8019,
  "qulağı": 8020,
  "qulağına": 8021,
  "qulağında": 8022,
  "qurbanıyam": 8023,
  "qurd": 8024,
  "quşunu": 8025,
  "qövs": 8026,
  "qübb": 8027,
  "qüssə": 8028,
  "qızış": 8029,
  "qədəh,": 8030,
  "qədəhinin": 8031,
  "qəlbimdə": 8032,
  "qələb": 8033,
  "qələmin": 8034,
  "qəmdə": 8035,
  "qəmin,": 8036,
  "qəmində": 8037,
  "qəmər": 8038,
  "qəmər,": 8039,
  "qənaət": 8040,
  "qəndi": 8041,
  "qərarı": 8042,
  "qərarım,": 8043,
  "qəti": 8044,
  "qətiyy": 8045,
  "rahatlığı": 8046,
  "rahatlığım,": 8047,
  "reyhan,": 8048,
  "rix": 8049,
  "riyak": 8050,
  "rüsval": 8051,
  "rüşvət": 8052,
  "rıl": 8053,
  "rəftar": 8054,
  "rəx": 8055,
  "rəy": 8056,
  "sadə": 8057,
  "sadəlövh": 8058,
  "sahiblərinin": 8059,
  "salır": 8060,
  "sanar.": 8061,
  "sanmayın,": 8062,
  "sansa,": 8063,
  "sayıl": 8064,
  "saçdı,": 8065,
  "saçları": 8066,
  "saçına": 8067,
  "sevdasına": 8068,
  "sevincli": 8069,
  "sevindir": 8070,
  "si": 8071,
  "sidrə": 8072,
  "sifət,": 8073,
  "sinəli": 8074,
  "sinəm": 8075,
  "sinəmdə": 8076,
  "sinəmin": 8077,
  "sip": 8078,
  "sitəmindən": 8079,
  "sizdir,": 8080,
  "sonunu": 8081,
  "sultan,": 8082,
  "sultanı,": 8083,
  "surət,": 8084,
  "surətinin": 8085,
  "surətinə": 8086,
  "sö,": 8087,
  "söv": 8088,
  "söylər,": 8089,
  "sözünün": 8090,
  "süfrədə": 8091,
  "sünbülün": 8092,
  "süs": 8093,
  "süt": 8094,
  "sızdır,": 8095,
  "səbir": 8096,
  "səbz": 8097,
  "səbəbi,": 8098,
  "səccad": 8099,
  "sədə": 8100,
  "sədəq": 8101,
  "səhrada": 8102,
  "səltənət": 8103,
  "sərvim,": 8104,
  "sərxoş.": 8105,
  "səydim,": 8106,
  "səyyar": 8107,
  "səyə": 8108,
  "tac,": 8109,
  "tapdım.": 8110,
  "tapmadım,": 8111,
  "tapıb,": 8112,
  "tapılmaz": 8113,
  "tapınca,": 8114,
  "tat": 8115,
  "tax": 8116,
  "tayf": 8117,
  "telini": 8118,
  "tellər": 8119,
  "tez-tez": 8120,
  "til": 8121,
  "tiry": 8122,
  "tit": 8123,
  "toplay": 8124,
  "tufanı.": 8125,
  "tutmaz,": 8126,
  "tutulmuş": 8127,
  "tökmə,": 8128,
  "tökülən": 8129,
  "tökür": 8130,
  "tökər": 8131,
  "tükənməz": 8132,
  "tün": 8133,
  "tüğ": 8134,
  "təbiətli": 8135,
  "təcəlli": 8136,
  "təfsir": 8137,
  "tək-": 8138,
  "təni": 8139,
  "tənəsi": 8140,
  "təp": 8141,
  "tərifləy": 8142,
  "tərp": 8143,
  "tərpən": 8144,
  "təsbih": 8145,
  "təsdiq": 8146,
  "təvaz": 8147,
  "təxt": 8148,
  "uca,": 8149,
  "uda,": 8150,
  "udum,": 8151,
  "uldu.": 8152,
  "umda": 8153,
  "umu,": 8154,
  "unun,": 8155,
  "ura": 8156,
  "ustadı": 8157,
  "usundan": 8158,
  "uzaqlaşdır": 8159,
  "uzat": 8160,
  "uşaqlar": 8161,
  "uşun": 8162,
  "vana": 8163,
  "vanə": 8164,
  "vardır.": 8165,
  "varkən,": 8166,
  "varsa.": 8167,
  "vaxtdır": 8168,
  "vaya": 8169,
  "veril": 8170,
  "vermə.": 8171,
  "verməd": 8172,
  "verə,": 8173,
  "verərəm": 8174,
  "vey": 8175,
  "vurar,": 8176,
  "vurar.": 8177,
  "vurma,": 8178,
  "vücudum": 8179,
  "vüsala": 8180,
  "vədi": 8181,
  "vəfa,": 8182,
  "vəfad": 8183,
  "vəfası": 8184,
  "vəhyi": 8185,
  "vəq": 8186,
  "vəslinə,": 8187,
  "vəziyyət": 8188,
  "xak": 8189,
  "xali": 8190,
  "xalqdan": 8191,
  "xalın,": 8192,
  "xasiyyəti": 8193,
  "xasiyyətli": 8194,
  "xatirinə,": 8195,
  "xoşbəxt,": 8196,
  "xoşbəxtlik": 8197,
  "xürrəm": 8198,
  "xüsusi": 8199,
  "xəbərin": 8200,
  "xəncər?": 8201,
  "xəncəri,": 8202,
  "yadı": 8203,
  "yadıma": 8204,
  "yadına": 8205,
  "yanına": 8206,
  "yanır": 8207,
  "yanıram,": 8208,
  "yaquta": 8209,
  "yaradan,": 8210,
  "yaralı": 8211,
  "yardan": 8212,
  "yarı,": 8213,
  "yarıl": 8214,
  "yarısı": 8215,
  "yavaş": 8216,
  "yaxşıdır.": 8217,
  "yaya": 8218,
  "yazılmış": 8219,
  "yağlı": 8220,
  "yaşına": 8221,
  "yaşının": 8222,
  "yedi,": 8223,
  "yegan": 8224,
  "yerini": 8225,
  "yetişməz": 8226,
  "yetməz": 8227,
  "yeyir": 8228,
  "yollar": 8229,
  "yolum": 8230,
  "yoluna,": 8231,
  "yorul": 8232,
  "yoxa": 8233,
  "yoxdan": 8234,
  "yoxluq": 8235,
  "yoxsa,": 8236,
  "yurd": 8237,
  "yuxarı": 8238,
  "yuxudan": 8239,
  "yuxusundan": 8240,
  "yön": 8241,
  "yükü": 8242,
  "yıxan": 8243,
  "zahirdə": 8244,
  "zamandır,": 8245,
  "zar-": 8246,
  "zarı": 8247,
  "zatının": 8248,
  "zib": 8249,
  "zikri": 8250,
  "zirv": 8251,
  "zöh": 8252,
  "zülfün,": 8253,
  "zülfündən": 8254,
  "zülfə": 8255,
  "zülmündən": 8256,
  "zülmətində": 8257,
  "zəhr": 8258,
  "zəhəri": 8259,
  "zəlil": 8260,
  "zəmanə": 8261,
  "«": 8262,
  "»": 8263,
  "Çoxdan": 8264,
  "Çoxdur": 8265,
  "Çöl": 8266,
  "Çör": 8267,
  "Öp": 8268,
  "Öv": 8269,
  "Özünə": 8270,
  "Ürəyi": 8271,
  "Üzümü": 8272,
  "çak": 8273,
  "çatmadı": 8274,
  "çatmadı.": 8275,
  "çatıb,": 8276,
  "çax": 8277,
  "çidir,": 8278,
  "çirkin": 8279,
  "çiyn": 8280,
  "ço": 8281,
  "çov": 8282,
  "çoxdur": 8283,
  "çusu": 8284,
  "çövk": 8285,
  "çün,": 8286,
  "çıxmaz": 8287,
  "çıxır,": 8288,
  "çə,": 8289,
  "çəkdi.": 8290,
  "çəkdim": 8291,
  "çəkdiyim": 8292,
  "çəkmişəm,": 8293,
  "çəkmərəm,": 8294,
  "çəksin": 8295,
  "çəkərsən": 8296,
  "çəməndə": 8297,
  "çətinlik": 8298,
  "çətinliyi": 8299,
  "öldüm,": 8300,
  "öldürmək": 8301,
  "ömrün": 8302,
  "özlərini": 8303,
  "özü,": 8304,
  "özünün": 8305,
  "ülk": 8306,
  "ümdən": 8307,
  "ümidlə": 8308,
  "ünlə,": 8309,
  "ünun": 8310,
  "ünün,": 8311,
  "üqara": 8312,
  "ürdü": 8313,
  "ürs": 8314,
  "ürəyini": 8315,
  "üstü": 8316,
  "üstündür,": 8317,
  "üstünə,": 8318,
  "üzümə": 8319,
  "İbrah": 8320,
  "İlahi": 8321,
  "İmran": 8322,
  "İnan": 8323,
  "İnsanların": 8324,
  "İrəm": 8325,
  "İsan": 8326,
  "İsg": 8327,
  "İstədi": 8328,
  "ı\"": 8329,
  "ıb-": 8330,
  "ıca": 8331,
  "ıdı": 8332,
  "ıdır?": 8333,
  "ılday": 8334,
  "ımdakı": 8335,
  "ımız,": 8336,
  "ıqla": 8337,
  "ıqlı,": 8338,
  "ırdı,": 8339,
  "ırlar.": 8340,
  "ırsa,": 8341,
  "ıyam": 8342,
  "ızda": 8343,
  "Şafe": 8344,
  "Şahların": 8345,
  "Şeytan": 8346,
  "Şirvanda": 8347,
  "Şövk": 8348,
  "Şübhəs": 8349,
  "Şüm": 8350,
  "Şərabın": 8351,
  "şahbaz": 8352,
  "şahım": 8353,
  "şahə": 8354,
  "şamı,": 8355,
  "şan.": 8356,
  "şanlı": 8357,
  "şeytana": 8358,
  "şeytanın": 8359,
  "şikar": 8360,
  "şivən": 8361,
  "şiş": 8362,
  "şu": 8363,
  "şöhrəti": 8364,
  "şöhrətli": 8365,
  "şövkət": 8366,
  "şövqündən": 8367,
  "şübh": 8368,
  "şəffaf": 8369,
  "şənlik": 8370,
  "şərabla": 8371,
  "şərabını": 8372,
  "şərhini": 8373,
  "şərq": 8374,
  "Əbu": 8375,
  "Əgərçi": 8376,
  "Əhval": 8377,
  "Əli,": 8378,
  "Əlin": 8379,
  "Ərz": 8380,
  "Əsil": 8381,
  "Əsl": 8382,
  "Ətirli": 8383,
  "Ətraf": 8384,
  "Əvvəlcə": 8385,
  "Əzizim,": 8386,
  "əbcəd": 8387,
  "əcəb,": 8388,
  "ədalətli": 8389,
  "ədar": 8390,
  "ədin": 8391,
  "əfa": 8392,
  "əfşan": 8393,
  "əgərçi": 8394,
  "əhv": 8395,
  "əhvalı": 8396,
  "əhvalımı": 8397,
  "əkin": 8398,
  "əldən,": 8399,
  "əlhəq": 8400,
  "əlhəq\"": 8401,
  "ələm": 8402,
  "ələrinin": 8403,
  "əmanət": 8404,
  "əmin-amanlıq": 8405,
  "əmmam": 8406,
  "əmrinə": 8407,
  "əmrə": 8408,
  "əninə": 8409,
  "əqiq": 8410,
  "əqiqə": 8411,
  "ərdi.": 8412,
  "ərşin": 8413,
  "əsdi,": 8414,
  "əsini,": 8415,
  "əsir,": 8416,
  "əsirgəm": 8417,
  "əskil": 8418,
  "ətdir": 8419,
  "ətdir.": 8420,
  "ətrinə": 8421,
  "ətək": 8422,
  "əvvəlki": 8423,
  "əvvər": 8424,
  "əvü": 8425,
  "əydim": 8426,
  "əydim,": 8427,
  "əyində": 8428,
  "əylə": 8429,
  "əyləncə": 8430,
  "əyləş": 8431,
  "əz.": 8432,
  "əç": 8433,
  "əşyal": 8434,
  "ə’": 8435,
  "Azər": 8436,
  "Bəx": 8437,
  "Do": 8438,
  "Dos": 8439,
  "Fikr": 8440,
  "Fəz": 8441,
  "Gözlər": 8442,
  "Güzg": 8443,
  "Müğənn": 8444,
  "Məc": 8445,
  "Nər": 8446,
  "Qarış": 8447,
  "Quş": 8448,
  "Qıs": 8449,
  "Sul": 8450,
  "Sün": 8451,
  "Səxav": 8452,
  "Tan": 8453,
  "Xosr": 8454,
  "Xətay": 8455,
  "Yaq": 8456,
  "Zə": 8457,
  "Zənc": 8458,
  "a-damla": 8459,
  "a-parça": 8460,
  "adis": 8461,
  "adır?": 8462,
  "ahar": 8463,
  "akar": 8464,
  "amlı": 8465,
  "atəv": 8466,
  "aydı,": 8467,
  "aşik": 8468,
  "burul": 8469,
  "bəcür": 8470,
  "cilov": 8471,
  "dimmi?": 8472,
  "döv": 8473,
  "dıq.": 8474,
  "eyr": 8475,
  "fürs": 8476,
  "gar": 8477,
  "girif": 8478,
  "göv": 8479,
  "gülz": 8480,
  "gəlməd": 8481,
  "hüc": 8482,
  "imt": 8483,
  "ində.": 8484,
  "işrət": 8485,
  "işə,": 8486,
  "iət": 8487,
  "ke": 8488,
  "köh": 8489,
  "lum,": 8490,
  "ləti": 8491,
  "mehrib": 8492,
  "muş.": 8493,
  "mübtəl": 8494,
  "müştər": 8495,
  "məhbu": 8496,
  "ne": 8497,
  "neyləy": 8498,
  "palç": 8499,
  "qabar": 8500,
  "qan-": 8501,
  "qquz": 8502,
  "rüsv": 8503,
  "səc": 8504,
  "sək": 8505,
  "səras": 8506,
  "tör": 8507,
  "təkl": 8508,
  "uf": 8509,
  "unu.": 8510,
  "usan,": 8511,
  "vil": 8512,
  "xey": 8513,
  "Ürəy": 8514,
  "ölg": 8515,
  "öq": 8516,
  "övş": 8517,
  "öş": 8518,
  "ülf": 8519,
  "üm.": 8520,
  "ünt": 8521,
  "İk": 8522,
  "İz": 8523,
  "Şüb": 8524,
  "şeyt": 8525,
  "şiv": 8526,
  "Əlbət": 8527,
  "ələn": 8528,
  "əmanənin": 8529,
  "ərdar": 8530,
  "ətta": 8531,
  "əyəm.": 8532,
  "'''": 8533,
  "*.": 8534,
  "Afər": 8535,
  "Böy": 8536,
  "Dün": 8537,
  "Hadi": 8538,
  "Həmdəm": 8539,
  "Ley": 8540,
  "Musan": 8541,
  "Mərif": 8542,
  "Nov": 8543,
  "Qüd": 8544,
  "Sol": 8545,
  "Sor": 8546,
  "Xor": 8547,
  "Züleyx": 8548,
  "ahan": 8549,
  "akim": 8550,
  "ayət,": 8551,
  "azib": 8552,
  "bağlam": 8553,
  "bəbək": 8554,
  "bəgün": 8555,
  "bərin": 8556,
  "bəsir": 8557,
  "cəd": 8558,
  "durnal": 8559,
  "düç": 8560,
  "dənd": 8561,
  "ec": 8562,
  "eniş": 8563,
  "eçə": 8564,
  "faydas": 8565,
  "filan": 8566,
  "gət": 8567,
  "hüz": 8568,
  "hədiyy": 8569,
  "ilah": 8570,
  "ildır": 8571,
  "ilər:": 8572,
  "int": 8573,
  "ivə": 8574,
  "kif": 8575,
  "kifayət": 8576,
  "kip": 8577,
  "köy": 8578,
  "mürüv": 8579,
  "müxtəl": 8580,
  "məsk": 8581,
  "nax": 8582,
  "nit": 8583,
  "nüs": 8584,
  "nəc": 8585,
  "old": 8586,
  "pol": 8587,
  "qam": 8588,
  "qəddəs": 8589,
  "rüş": 8590,
  "sadəl": 8591,
  "sini": 8592,
  "sədən": 8593,
  "səkk": 8594,
  "səltən": 8595,
  "uba": 8596,
  "xas": 8597,
  "xən": 8598,
  "yaq": 8599,
  "yavaş-yavaş": 8600,
  "yur": 8601,
  "zik": 8602,
  "zü": 8603,
  "Ünsür": 8604,
  "öhrəti": 8605,
  "övhid": 8606,
  "ürəm.": 8607,
  "ğənn": 8608,
  "İlah": 8609,
  "İsf": 8610,
  "ş-": 8611,
  "şübhəs": 8612,
  "əjd": 8613,
  "əmməd": 8614,
  "ərsiz": 8615,
  "ərç": 8616,
  "Döv": 8617,
  "Gön": 8618,
  "Güm": 8619,
  "Hik": 8620,
  "Kön": 8621,
  "Mirz": 8622,
  "Mustaf": 8623,
  "Müm": 8624,
  "Məq": 8625,
  "Nar": 8626,
  "Nuşirəv": 8627,
  "Qən": 8628,
  "Rəs": 8629,
  "Sah": 8630,
  "Simur": 8631,
  "Sül": 8632,
  "Səc": 8633,
  "Ul": 8634,
  "Yax": 8635,
  "Yus": 8636,
  "Zəmz": 8637,
  "Zən": 8638,
  "afe": 8639,
  "ain": 8640,
  "alt-": 8641,
  "amanlıq": 8642,
  "ard": 8643,
  "başdan-": 8644,
  "başlanğ": 8645,
  "caq": 8646,
  "cəvah": 8647,
  "dos": 8648,
  "dust": 8649,
  "dəhr": 8650,
  "eyf": 8651,
  "eyləmiş": 8652,
  "fas": 8653,
  "fəx": 8654,
  "gəldin": 8655,
  "hik": 8656,
  "hiy": 8657,
  "hərd": 8658,
  "ilh": 8659,
  "irəv": 8660,
  "işan": 8661,
  "küncün": 8662,
  "liber": 8663,
  "maram.": 8664,
  "mirəm": 8665,
  "mö": 8666,
  "müj": 8667,
  "müm": 8668,
  "müyəss": 8669,
  "mışlar.": 8670,
  "məzəm": 8671,
  "məğr": 8672,
  "məşğ": 8673,
  "neç": 8674,
  "peyğəm": 8675,
  "qıv": 8676,
  "qəmg": 8677,
  "rəğ": 8678,
  "siz.": 8679,
  "te": 8680,
  "tə,": 8681,
  "təhl": 8682,
  "təzah": 8683,
  "vüc": 8684,
  "xis": 8685,
  "xür": 8686,
  "yap": 8687,
  "yüks": 8688,
  "çiç": 8689,
  "ö,": 8690,
  "ördüncü": 8691,
  "örp": 8692,
  "övs": 8693,
  "ünlüklə": 8694,
  "üzul": 8695,
  "Ğ": 8696,
  "İskən": 8697,
  "ınd": 8698,
  "ırl": 8699,
  "ısan": 8700,
  "Şük": 8701,
  "ş-işrət": 8702,
  "şim": 8703,
  "şüb": 8704,
  "əb,": 8705,
  "əfənd": 8706,
  "əm!": 8707,
  "əmz": 8708,
  "əqin": 8709,
  "əvah": 8710,
  "Е": 8711,
  "О": 8712,
  "х": 8713,
  "-çöp": 8714,
  "Am": 8715,
  "Baxmay": 8716,
  "Beh": 8717,
  "Bül": 8718,
  "Dod": 8719,
  "Dünyad": 8720,
  "Fəqir": 8721,
  "Güz": 8722,
  "Kas": 8723,
  "Lam": 8724,
  "M.": 8725,
  "Mah": 8726,
  "Müb": 8727,
  "Məsəl": 8728,
  "Pay": 8729,
  "Tor": 8730,
  "Vaqif'''": 8731,
  "Xid": 8732,
  "Xız": 8733,
  "[": 8734,
  "]": 8735,
  "akin": 8736,
  "aliz": 8737,
  "aqq": 8738,
  "ağrım": 8739,
  "bor": 8740,
  "cal": 8741,
  "cüz": 8742,
  "dı!": 8743,
  "dıl": 8744,
  "ez": 8745,
  "fəh": 8746,
  "görmür": 8747,
  "güv": 8748,
  "gəlmişlərdən": 8749,
  "hardas": 8750,
  "hüs": 8751,
  "icr": 8752,
  "ida,": 8753,
  "ift": 8754,
  "imdad": 8755,
  "inq": 8756,
  "iqər": 8757,
  "jd": 8758,
  "kərp": 8759,
  "ləgahım": 8760,
  "mac": 8761,
  "mir?": 8762,
  "mübah": 8763,
  "mül": 8764,
  "müy": 8765,
  "məhru": 8766,
  "paq": 8767,
  "per": 8768,
  "pus": 8769,
  "pün": 8770,
  "qq": 8771,
  "qəbr": 8772,
  "qələndər": 8773,
  "risti": 8774,
  "rüs": 8775,
  "sin!": 8776,
  "sonr": 8777,
  "tapmadı": 8778,
  "tapş": 8779,
  "təsl": 8780,
  "təəcc": 8781,
  "təəss": 8782,
  "xid": 8783,
  "xo": 8784,
  "xürr": 8785,
  "xəc": 8786,
  "yavaş-": 8787,
  "zəf": 8788,
  "Çal": 8789,
  "Ün": 8790,
  "ölə": 8791,
  "ördün": 8792,
  "övk": 8793,
  "övsər": 8794,
  "ünlük": 8795,
  "ütün": 8796,
  "ırda": 8797,
  "ığıl": 8798,
  "Ətir": 8799,
  "əmin-": 8800,
  "ənlər.": 8801,
  "е": 8802
}